{
    "0": "\u0000",
    "1": "\u0001",
    "2": "\u0002",
    "3": "\u0003",
    "4": "\u0004",
    "5": "\u0005",
    "6": "\u0006",
    "7": "\u0007",
    "8": "\b",
    "9": "\t",
    "10": "\n",
    "11": "\u000b",
    "12": "\f",
    "13": "\r",
    "14": "\u000e",
    "15": "\u000f",
    "16": "\u0010",
    "17": "\u0011",
    "18": "\u0012",
    "19": "\u0013",
    "20": "\u0014",
    "21": "\u0015",
    "22": "\u0016",
    "23": "\u0017",
    "24": "\u0018",
    "25": "\u0019",
    "26": "\u001a",
    "27": "\u001b",
    "28": "\u001c",
    "29": "\u001d",
    "30": "\u001e",
    "31": "\u001f",
    "32": " ",
    "33": "!",
    "34": "\"",
    "35": "#",
    "36": "$",
    "37": "%",
    "38": "&",
    "39": "'",
    "40": "(",
    "41": ")",
    "42": "*",
    "43": "+",
    "44": ",",
    "45": "-",
    "46": ".",
    "47": "/",
    "48": "0",
    "49": "1",
    "50": "2",
    "51": "3",
    "52": "4",
    "53": "5",
    "54": "6",
    "55": "7",
    "56": "8",
    "57": "9",
    "58": ":",
    "59": ";",
    "60": "<",
    "61": "=",
    "62": ">",
    "63": "?",
    "64": "@",
    "65": "A",
    "66": "B",
    "67": "C",
    "68": "D",
    "69": "E",
    "70": "F",
    "71": "G",
    "72": "H",
    "73": "I",
    "74": "J",
    "75": "K",
    "76": "L",
    "77": "M",
    "78": "N",
    "79": "O",
    "80": "P",
    "81": "Q",
    "82": "R",
    "83": "S",
    "84": "T",
    "85": "U",
    "86": "V",
    "87": "W",
    "88": "X",
    "89": "Y",
    "90": "Z",
    "91": "[",
    "92": "\\",
    "93": "]",
    "94": "^",
    "95": "_",
    "96": "`",
    "97": "a",
    "98": "b",
    "99": "c",
    "100": "d",
    "101": "e",
    "102": "f",
    "103": "g",
    "104": "h",
    "105": "i",
    "106": "j",
    "107": "k",
    "108": "l",
    "109": "m",
    "110": "n",
    "111": "o",
    "112": "p",
    "113": "q",
    "114": "r",
    "115": "s",
    "116": "t",
    "117": "u",
    "118": "v",
    "119": "w",
    "120": "x",
    "121": "y",
    "122": "z",
    "123": "{",
    "124": "|",
    "125": "}",
    "126": "~",
    "127": "\u007f",
    "128": "\ufffd",
    "129": "\ufffd",
    "130": "\ufffd",
    "131": "\ufffd",
    "132": "\ufffd",
    "133": "\ufffd",
    "134": "\ufffd",
    "135": "\ufffd",
    "136": "\ufffd",
    "137": "\ufffd",
    "138": "\ufffd",
    "139": "\ufffd",
    "140": "\ufffd",
    "141": "\ufffd",
    "142": "\ufffd",
    "143": "\ufffd",
    "144": "\ufffd",
    "145": "\ufffd",
    "146": "\ufffd",
    "147": "\ufffd",
    "148": "\ufffd",
    "149": "\ufffd",
    "150": "\ufffd",
    "151": "\ufffd",
    "152": "\ufffd",
    "153": "\ufffd",
    "154": "\ufffd",
    "155": "\ufffd",
    "156": "\ufffd",
    "157": "\ufffd",
    "158": "\ufffd",
    "159": "\ufffd",
    "160": "\ufffd",
    "161": "\ufffd",
    "162": "\ufffd",
    "163": "\ufffd",
    "164": "\ufffd",
    "165": "\ufffd",
    "166": "\ufffd",
    "167": "\ufffd",
    "168": "\ufffd",
    "169": "\ufffd",
    "170": "\ufffd",
    "171": "\ufffd",
    "172": "\ufffd",
    "173": "\ufffd",
    "174": "\ufffd",
    "175": "\ufffd",
    "176": "\ufffd",
    "177": "\ufffd",
    "178": "\ufffd",
    "179": "\ufffd",
    "180": "\ufffd",
    "181": "\ufffd",
    "182": "\ufffd",
    "183": "\ufffd",
    "184": "\ufffd",
    "185": "\ufffd",
    "186": "\ufffd",
    "187": "\ufffd",
    "188": "\ufffd",
    "189": "\ufffd",
    "190": "\ufffd",
    "191": "\ufffd",
    "192": "\ufffd",
    "193": "\ufffd",
    "194": "\ufffd",
    "195": "\ufffd",
    "196": "\ufffd",
    "197": "\ufffd",
    "198": "\ufffd",
    "199": "\ufffd",
    "200": "\ufffd",
    "201": "\ufffd",
    "202": "\ufffd",
    "203": "\ufffd",
    "204": "\ufffd",
    "205": "\ufffd",
    "206": "\ufffd",
    "207": "\ufffd",
    "208": "\ufffd",
    "209": "\ufffd",
    "210": "\ufffd",
    "211": "\ufffd",
    "212": "\ufffd",
    "213": "\ufffd",
    "214": "\ufffd",
    "215": "\ufffd",
    "216": "\ufffd",
    "217": "\ufffd",
    "218": "\ufffd",
    "219": "\ufffd",
    "220": "\ufffd",
    "221": "\ufffd",
    "222": "\ufffd",
    "223": "\ufffd",
    "224": "\ufffd",
    "225": "\ufffd",
    "226": "\ufffd",
    "227": "\ufffd",
    "228": "\ufffd",
    "229": "\ufffd",
    "230": "\ufffd",
    "231": "\ufffd",
    "232": "\ufffd",
    "233": "\ufffd",
    "234": "\ufffd",
    "235": "\ufffd",
    "236": "\ufffd",
    "237": "\ufffd",
    "238": "\ufffd",
    "239": "\ufffd",
    "240": "\ufffd",
    "241": "\ufffd",
    "242": "\ufffd",
    "243": "\ufffd",
    "244": "\ufffd",
    "245": "\ufffd",
    "246": "\ufffd",
    "247": "\ufffd",
    "248": "\ufffd",
    "249": "\ufffd",
    "250": "\ufffd",
    "251": "\ufffd",
    "252": "\ufffd",
    "253": "\ufffd",
    "254": "\ufffd",
    "255": "\ufffd",
    "256": "<|endoftext|>",
    "257": " t",
    "258": "he",
    "259": " a",
    "260": " s",
    "261": " w",
    "262": "nd",
    "263": " the",
    "264": "ed",
    "265": " b",
    "266": " to",
    "267": " and",
    "268": " h",
    "269": " f",
    "270": "in",
    "271": " T",
    "272": " wa",
    "273": "re",
    "274": "it",
    "275": "ou",
    "276": " l",
    "277": " d",
    "278": " c",
    "279": " p",
    "280": "ay",
    "281": " m",
    "282": "er",
    "283": " was",
    "284": "om",
    "285": " The",
    "286": " he",
    "287": "is",
    "288": "ar",
    "289": " n",
    "290": "im",
    "291": "on",
    "292": " sa",
    "293": "id",
    "294": "ll",
    "295": " ha",
    "296": " g",
    "297": "at",
    "298": " S",
    "299": "ing",
    "300": "ot",
    "301": "en",
    "302": "an",
    "303": "le",
    "304": "or",
    "305": "ir",
    "306": "am",
    "307": "et",
    "308": " H",
    "309": " it",
    "310": " th",
    "311": "ig",
    "312": " They",
    "313": " in",
    "314": "il",
    "315": " pl",
    "316": " He",
    "317": " \"",
    "318": "ow",
    "319": "ver",
    "320": "ri",
    "321": "ut",
    "322": " be",
    "323": " u",
    "324": " said",
    "325": " play",
    "326": "ith",
    "327": " day",
    "328": " with",
    "329": "pp",
    "330": "On",
    "331": " o",
    "332": " y",
    "333": "oo",
    "334": "ked",
    "335": " r",
    "336": " her",
    "337": "ce",
    "338": " I",
    "339": " She",
    "340": "ld",
    "341": " Tim",
    "342": " his",
    "343": " st",
    "344": "ke",
    "345": " e",
    "346": " big",
    "347": "nt",
    "348": "ck",
    "349": " you",
    "350": "very",
    "351": "st",
    "352": "ve",
    "353": "end",
    "354": " on",
    "355": "un",
    "356": " happ",
    "357": "riend",
    "358": " friend",
    "359": "all",
    "360": "ily",
    "361": " L",
    "362": " they",
    "363": " we",
    "364": " had",
    "365": " not",
    "366": " li",
    "367": " up",
    "368": "her",
    "369": " want",
    "370": " of",
    "371": "ad",
    "372": "itt",
    "373": "se",
    "374": " B",
    "375": " do",
    "376": " happy",
    "377": "ent",
    "378": " very",
    "379": " M",
    "380": "es",
    "381": " that",
    "382": " saw",
    "383": "One",
    "384": "'s",
    "385": "ould",
    "386": " mom",
    "387": " for",
    "388": " sh",
    "389": "ittle",
    "390": " little",
    "391": " so",
    "392": " she",
    "393": "ch",
    "394": "ime",
    "395": " ne",
    "396": " nam",
    "397": ".\"",
    "398": " time",
    "399": " k",
    "400": "ound",
    "401": " there",
    "402": " named",
    "403": " sm",
    "404": " bo",
    "405": " were",
    "406": " Lily",
    "407": " wanted",
    "408": " but",
    "409": "out",
    "410": "The",
    "411": " friends",
    "412": "ved",
    "413": "!\"",
    "414": "ht",
    "415": " Tom",
    "416": "ird",
    "417": "el",
    "418": " bird",
    "419": "al",
    "420": " an",
    "421": "ake",
    "422": " too",
    "423": "ome",
    "424": " It",
    "425": "ug",
    "426": "ide",
    "427": " went",
    "428": " wh",
    "429": " hel",
    "430": "Once",
    "431": " is",
    "432": " all",
    "433": " help",
    "434": "ue",
    "435": " loo",
    "436": " lo",
    "437": "ter",
    "438": " A",
    "439": " upon",
    "440": "ry",
    "441": "ore",
    "442": "ind",
    "443": " fun",
    "444": "get",
    "445": " toy",
    "446": "ill",
    "447": "ame",
    "448": " as",
    "449": " at",
    "450": "ra",
    "451": " j",
    "452": " did",
    "453": "gether",
    "454": " re",
    "455": "ur",
    "456": " se",
    "457": " together",
    "458": "ack",
    "459": " cat",
    "460": "ly",
    "461": " tre",
    "462": "ood",
    "463": "ic",
    "464": "ted",
    "465": " dog",
    "466": " could",
    "467": " can",
    "468": " their",
    "469": "ard",
    "470": "ec",
    "471": "ark",
    "472": " gir",
    "473": " played",
    "474": " him",
    "475": " ball",
    "476": "?\"",
    "477": " girl",
    "478": "way",
    "479": " ro",
    "480": " go",
    "481": "hed",
    "482": "my",
    "483": " are",
    "484": " out",
    "485": " le",
    "486": " fr",
    "487": "ain",
    "488": " kn",
    "489": "hen",
    "490": " them",
    "491": "um",
    "492": "'t",
    "493": "ax",
    "494": " sad",
    "495": "ul",
    "496": " boy",
    "497": " tree",
    "498": "other",
    "499": " have",
    "500": " man",
    "501": " cl",
    "502": " loved",
    "503": " looked",
    "504": "oug",
    "505": " found",
    "506": " sp",
    "507": " star",
    "508": " Sue",
    "509": "one",
    "510": "hing",
    "511": " sc",
    "512": " back",
    "513": "own",
    "514": " Max",
    "515": "are",
    "516": " like",
    "517": "ful",
    "518": "side",
    "519": " me",
    "520": " bec",
    "521": " park",
    "522": "ight",
    "523": "ong",
    "524": " car",
    "525": "op",
    "526": "elt",
    "527": " One",
    "528": " liked",
    "529": " would",
    "530": " make",
    "531": "round",
    "532": " la",
    "533": " fa",
    "534": " felt",
    "535": "You",
    "536": " W",
    "537": "ell",
    "538": " see",
    "539": " But",
    "540": "omet",
    "541": " asked",
    "542": "ag",
    "543": " new",
    "544": " no",
    "545": "ice",
    "546": " Sam",
    "547": "ouse",
    "548": " started",
    "549": "ared",
    "550": " came",
    "551": " Ben",
    "552": " al",
    "553": " other",
    "554": "ought",
    "555": "iled",
    "556": " somet",
    "557": " ag",
    "558": " good",
    "559": " small",
    "560": "ss",
    "561": " br",
    "562": " smiled",
    "563": " say",
    "564": "ried",
    "565": "ade",
    "566": "ings",
    "567": "ob",
    "568": "pot",
    "569": " wor",
    "570": " find",
    "571": " ex",
    "572": "ia",
    "573": " away",
    "574": "ty",
    "575": " put",
    "576": " what",
    "577": " something",
    "578": " co",
    "579": " from",
    "580": " made",
    "581": " thought",
    "582": "ened",
    "583": " home",
    "584": " playing",
    "585": "ook",
    "586": " every",
    "587": " wal",
    "588": " mu",
    "589": "uc",
    "590": "ach",
    "591": "arn",
    "592": " Spot",
    "593": " ran",
    "594": "ile",
    "595": " F",
    "596": "ie",
    "597": " J",
    "598": "ave",
    "599": " again",
    "600": " some",
    "601": " laug",
    "602": "dd",
    "603": " house",
    "604": " down",
    "605": " fl",
    "606": "king",
    "607": " took",
    "608": " scared",
    "609": " pr",
    "610": "ny",
    "611": "ure",
    "612": " toys",
    "613": " learn",
    "614": " You",
    "615": "if",
    "616": " will",
    "617": " box",
    "618": "ick",
    "619": "ret",
    "620": "ab",
    "621": "ep",
    "622": " my",
    "623": " around",
    "624": " things",
    "625": " your",
    "626": "oud",
    "627": " bl",
    "628": "uck",
    "629": " when",
    "630": "ish",
    "631": " lived",
    "632": " fe",
    "633": " then",
    "634": " sun",
    "635": "as",
    "636": " sw",
    "637": ",\"",
    "638": " ch",
    "639": "us",
    "640": "pped",
    "641": " ab",
    "642": " Mia",
    "643": "ank",
    "644": " get",
    "645": "ucy",
    "646": "Tim",
    "647": "ump",
    "648": "Th",
    "649": " lot",
    "650": "ist",
    "651": "oth",
    "652": " tried",
    "653": "ap",
    "654": " know",
    "655": " says",
    "656": " got",
    "657": "ited",
    "658": " who",
    "659": " kne",
    "660": "ust",
    "661": " many",
    "662": "nder",
    "663": " int",
    "664": " about",
    "665": "Lily",
    "666": " pret",
    "667": " dec",
    "668": " any",
    "669": " red",
    "670": " D",
    "671": "ive",
    "672": " knew",
    "673": "ace",
    "674": "ous",
    "675": " more",
    "676": "ise",
    "677": " care",
    "678": "ally",
    "679": " pic",
    "680": "au",
    "681": "qu",
    "682": " hug",
    "683": " Lucy",
    "684": " learned",
    "685": " po",
    "686": " water",
    "687": "fter",
    "688": " v",
    "689": " became",
    "690": " best",
    "691": "ause",
    "692": " op",
    "693": " gre",
    "694": " exc",
    "695": "urp",
    "696": "ways",
    "697": "\ufffd",
    "698": " outside",
    "699": " laughed",
    "700": " look",
    "701": " always",
    "702": " decid",
    "703": " show",
    "704": " un",
    "705": "ant",
    "706": " Bob",
    "707": " room",
    "708": "fe",
    "709": " decided",
    "710": " ho",
    "711": " because",
    "712": " So",
    "713": " into",
    "714": " eat",
    "715": "ite",
    "716": " jump",
    "717": " And",
    "718": " pe",
    "719": " both",
    "720": "ers",
    "721": " Mom",
    "722": " dad",
    "723": "They",
    "724": "udd",
    "725": " ke",
    "726": " one",
    "727": "nn",
    "728": " this",
    "729": " excited",
    "730": " fast",
    "731": " nice",
    "732": " E",
    "733": " feel",
    "734": "Tom",
    "735": "Yes",
    "736": " run",
    "737": " long",
    "738": " told",
    "739": " sk",
    "740": " am",
    "741": "urpr",
    "742": "our",
    "743": " inside",
    "744": "ull",
    "745": " tr",
    "746": " surpr",
    "747": " mo",
    "748": "ink",
    "749": " pretty",
    "750": "iny",
    "751": " sor",
    "752": "Wh",
    "753": " take",
    "754": "og",
    "755": " sl",
    "756": " each",
    "757": " gave",
    "758": " much",
    "759": " gra",
    "760": "lew",
    "761": "nna",
    "762": " rock",
    "763": " how",
    "764": " str",
    "765": "ara",
    "766": "imal",
    "767": " animal",
    "768": "ged",
    "769": " need",
    "770": " than",
    "771": "But",
    "772": "ven",
    "773": "etter",
    "774": " tow",
    "775": " or",
    "776": " C",
    "777": " under",
    "778": "ess",
    "779": " old",
    "780": " sorry",
    "781": "ge",
    "782": "ised",
    "783": "ro",
    "784": "urt",
    "785": " cle",
    "786": " fish",
    "787": " walked",
    "788": " clo",
    "789": "and",
    "790": " bear",
    "791": "ft",
    "792": "ase",
    "793": "ast",
    "794": " hand",
    "795": "urn",
    "796": " We",
    "797": " kind",
    "798": " His",
    "799": " te",
    "800": "here",
    "801": " happened",
    "802": " just",
    "803": " flow",
    "804": " food",
    "805": " list",
    "806": " didn",
    "807": " animals",
    "808": " hig",
    "809": "pl",
    "810": " near",
    "811": " wat",
    "812": " ide",
    "813": " try",
    "814": "ched",
    "815": " sky",
    "816": "ine",
    "817": " sn",
    "818": "ving",
    "819": " fi",
    "820": "rom",
    "821": " us",
    "822": " idea",
    "823": " better",
    "824": " Amy",
    "825": " bug",
    "826": " heard",
    "827": "gry",
    "828": " its",
    "829": " tw",
    "830": " let",
    "831": "pec",
    "832": "ate",
    "833": "able",
    "834": "ff",
    "835": " en",
    "836": " careful",
    "837": " share",
    "838": "ex",
    "839": " if",
    "840": "Thank",
    "841": "Mom",
    "842": " fly",
    "843": " stor",
    "844": "ial",
    "845": " flew",
    "846": "more",
    "847": " anymore",
    "848": " Th",
    "849": " spec",
    "850": " special",
    "851": "ion",
    "852": " com",
    "853": " lots",
    "854": " never",
    "855": " by",
    "856": "lf",
    "857": "ream",
    "858": " dan",
    "859": " bu",
    "860": " fo",
    "861": " wind",
    "862": " don",
    "863": " tal",
    "864": " clean",
    "865": "ort",
    "866": " gr",
    "867": " love",
    "868": "rm",
    "869": "ber",
    "870": " end",
    "871": "\n\n",
    "872": " Then",
    "873": "ople",
    "874": " even",
    "875": " mag",
    "876": " hard",
    "877": " shiny",
    "878": "udden",
    "879": " fore",
    "880": " over",
    "881": " cake",
    "882": "ak",
    "883": " book",
    "884": " col",
    "885": " turn",
    "886": " fam",
    "887": " bad",
    "888": " safe",
    "889": " after",
    "890": "ady",
    "891": " Anna",
    "892": "uddenly",
    "893": " people",
    "894": " proud",
    "895": " Every",
    "896": " surprised",
    "897": "pected",
    "898": "Let",
    "899": " high",
    "900": " cu",
    "901": " hurt",
    "902": " come",
    "903": "imb",
    "904": "arden",
    "905": " door",
    "906": " garden",
    "907": "bb",
    "908": " ground",
    "909": " opened",
    "910": " picked",
    "911": " loud",
    "912": " climb",
    "913": "expected",
    "914": " unexpected",
    "915": " gl",
    "916": " che",
    "917": "ild",
    "918": " im",
    "919": "As",
    "920": " give",
    "921": " way",
    "922": "ail",
    "923": "'m",
    "924": " thanked",
    "925": " color",
    "926": " blue",
    "927": " still",
    "928": " ever",
    "929": " hugged",
    "930": " From",
    "931": " call",
    "932": " far",
    "933": "ip",
    "934": " Her",
    "935": " Sara",
    "936": " When",
    "937": "No",
    "938": " off",
    "939": " magic",
    "940": "iz",
    "941": "ough",
    "942": "age",
    "943": "ummy",
    "944": " K",
    "945": " jumped",
    "946": " should",
    "947": " family",
    "948": " par",
    "949": "ool",
    "950": " kid",
    "951": " smile",
    "952": "hes",
    "953": "uff",
    "954": " place",
    "955": "kay",
    "956": " walk",
    "957": " now",
    "958": "ct",
    "959": " In",
    "960": " great",
    "961": "em",
    "962": "ture",
    "963": " qu",
    "964": "les",
    "965": " strong",
    "966": " stay",
    "967": " unt",
    "968": " sto",
    "969": "aut",
    "970": " forest",
    "971": "ane",
    "972": " bra",
    "973": "itty",
    "974": " P",
    "975": " frog",
    "976": " bro",
    "977": " until",
    "978": "oon",
    "979": " beaut",
    "980": "dy",
    "981": " squ",
    "982": " stick",
    "983": "xt",
    "984": " next",
    "985": " boat",
    "986": "lease",
    "987": "ning",
    "988": " happily",
    "989": " listen",
    "990": "aking",
    "991": " kids",
    "992": " tra",
    "993": "ies",
    "994": "iful",
    "995": " beautiful",
    "996": " app",
    "997": "th",
    "998": " helped",
    "999": " dra",
    "1000": " showed",
    "1001": " clos",
    "1002": "be",
    "1003": " imp",
    "1004": " story",
    "1005": "unny",
    "1006": "oy",
    "1007": " while",
    "1008": " town",
    "1009": "rel",
    "1010": "pt",
    "1011": " rain",
    "1012": "ress",
    "1013": " picture",
    "1014": " being",
    "1015": " rem",
    "1016": " everyone",
    "1017": "It",
    "1018": "ary",
    "1019": "ree",
    "1020": " mor",
    "1021": " hat",
    "1022": " called",
    "1023": " met",
    "1024": " stopped",
    "1025": " ad",
    "1026": " game",
    "1027": "Now",
    "1028": "He",
    "1029": "Can",
    "1030": " angry",
    "1031": "ger",
    "1032": "uffy",
    "1033": " open",
    "1034": " wo",
    "1035": " truck",
    "1036": " keep",
    "1037": " soft",
    "1038": "When",
    "1039": " cry",
    "1040": " yummy",
    "1041": " lost",
    "1042": " bed",
    "1043": " Let",
    "1044": " Sally",
    "1045": " warm",
    "1046": "by",
    "1047": "vent",
    "1048": " brave",
    "1049": " mouse",
    "1050": " Wh",
    "1051": " ate",
    "1052": " Kitty",
    "1053": "ished",
    "1054": " de",
    "1055": "fore",
    "1056": " doll",
    "1057": "so",
    "1058": " couldn",
    "1059": " watch",
    "1060": " leave",
    "1061": " also",
    "1062": "dded",
    "1063": " fell",
    "1064": " green",
    "1065": " face",
    "1066": " two",
    "1067": "gan",
    "1068": "iss",
    "1069": " flowers",
    "1070": "bit",
    "1071": "What",
    "1072": " R",
    "1073": "ble",
    "1074": " noise",
    "1075": "abbit",
    "1076": "irst",
    "1077": "owl",
    "1078": " where",
    "1079": "az",
    "1080": "ock",
    "1081": " soon",
    "1082": "self",
    "1083": " slide",
    "1084": " rabbit",
    "1085": " hole",
    "1086": "luffy",
    "1087": " before",
    "1088": "irrel",
    "1089": " pus",
    "1090": "ired",
    "1091": " sat",
    "1092": "illy",
    "1093": " hear",
    "1094": " use",
    "1095": "\u201d",
    "1096": "Hi",
    "1097": " pa",
    "1098": " kept",
    "1099": "\u201c",
    "1100": "That",
    "1101": " squirrel",
    "1102": "ear",
    "1103": "Then",
    "1104": "ma",
    "1105": " nodded",
    "1106": " expl",
    "1107": " store",
    "1108": " cook",
    "1109": " hands",
    "1110": "Look",
    "1111": " birds",
    "1112": " pain",
    "1113": " going",
    "1114": " funny",
    "1115": " having",
    "1116": "day",
    "1117": " sing",
    "1118": "aybe",
    "1119": "uch",
    "1120": " ey",
    "1121": "aug",
    "1122": " catch",
    "1123": "aught",
    "1124": " Can",
    "1125": " Fluffy",
    "1126": "uit",
    "1127": " yell",
    "1128": " think",
    "1129": "leep",
    "1130": " cra",
    "1131": " fin",
    "1132": "Ben",
    "1133": " bre",
    "1134": " fix",
    "1135": " tired",
    "1136": " bunny",
    "1137": " used",
    "1138": " looking",
    "1139": " bus",
    "1140": "ange",
    "1141": "air",
    "1142": " work",
    "1143": " wr",
    "1144": " our",
    "1145": " pull",
    "1146": "We",
    "1147": " thr",
    "1148": "thing",
    "1149": " Now",
    "1150": " wait",
    "1151": " kit",
    "1152": " sound",
    "1153": "ting",
    "1154": " jo",
    "1155": " has",
    "1156": " G",
    "1157": " mean",
    "1158": " pond",
    "1159": "ember",
    "1160": " beh",
    "1161": " dr",
    "1162": " sunny",
    "1163": "led",
    "1164": " others",
    "1165": " ask",
    "1166": "ng",
    "1167": "chen",
    "1168": " kitchen",
    "1169": " talk",
    "1170": " flo",
    "1171": " dif",
    "1172": "rew",
    "1173": " pie",
    "1174": " Jo",
    "1175": " head",
    "1176": " real",
    "1177": " first",
    "1178": " tri",
    "1179": " mommy",
    "1180": " eyes",
    "1181": "ello",
    "1182": " import",
    "1183": "Hello",
    "1184": " fav",
    "1185": "ath",
    "1186": "joy",
    "1187": " z",
    "1188": " remember",
    "1189": " right",
    "1190": " flower",
    "1191": " con",
    "1192": " mess",
    "1193": " party",
    "1194": " cold",
    "1195": " Do",
    "1196": " vo",
    "1197": " swe",
    "1198": "ious",
    "1199": " sand",
    "1200": " \u201c",
    "1201": "ac",
    "1202": "orn",
    "1203": " race",
    "1204": " curi",
    "1205": "imes",
    "1206": " important",
    "1207": " duck",
    "1208": " moral",
    "1209": " shared",
    "1210": "zy",
    "1211": "ount",
    "1212": " Jack",
    "1213": " ice",
    "1214": " okay",
    "1215": " advent",
    "1216": " worked",
    "1217": "llow",
    "1218": "At",
    "1219": " enjoy",
    "1220": " dress",
    "1221": " bright",
    "1222": " making",
    "1223": " curious",
    "1224": " own",
    "1225": " tall",
    "1226": " dir",
    "1227": " hop",
    "1228": "reed",
    "1229": " hid",
    "1230": " favor",
    "1231": " ri",
    "1232": "hn",
    "1233": " sleep",
    "1234": " dis",
    "1235": "Wow",
    "1236": " favorite",
    "1237": " thing",
    "1238": " began",
    "1239": " mon",
    "1240": " bag",
    "1241": " hill",
    "1242": "Don",
    "1243": " cla",
    "1244": " draw",
    "1245": " rest",
    "1246": " here",
    "1247": " yard",
    "1248": " tell",
    "1249": " Fin",
    "1250": "ster",
    "1251": " watched",
    "1252": "que",
    "1253": " follow",
    "1254": " move",
    "1255": " bel",
    "1256": "ect",
    "1257": " cut",
    "1258": " night",
    "1259": " agreed",
    "1260": " pick",
    "1261": "co",
    "1262": " block",
    "1263": " hun",
    "1264": "aper",
    "1265": "lly",
    "1266": " stop",
    "1267": " behind",
    "1268": " This",
    "1269": " surprise",
    "1270": "ied",
    "1271": " sho",
    "1272": " hot",
    "1273": "After",
    "1274": " table",
    "1275": " grass",
    "1276": " worry",
    "1277": " dark",
    "1278": " trees",
    "1279": " voice",
    "1280": " walking",
    "1281": "fere",
    "1282": " floor",
    "1283": " farm",
    "1284": " lion",
    "1285": " top",
    "1286": " differe",
    "1287": " please",
    "1288": " ru",
    "1289": " song",
    "1290": " butter",
    "1291": " tail",
    "1292": " sweet",
    "1293": "Max",
    "1294": " shout",
    "1295": " colors",
    "1296": " read",
    "1297": " Dad",
    "1298": " lady",
    "1299": " forg",
    "1300": "isy",
    "1301": " leaves",
    "1302": " closer",
    "1303": "ign",
    "1304": " cars",
    "1305": " turned",
    "1306": " neede",
    "1307": " tast",
    "1308": "Why",
    "1309": "aring",
    "1310": " wood",
    "1311": " cried",
    "1312": " different",
    "1313": " laugh",
    "1314": " del",
    "1315": " piece",
    "1316": "\u2019",
    "1317": "ered",
    "1318": " Mr",
    "1319": " roll",
    "1320": " adventure",
    "1321": " fire",
    "1322": " does",
    "1323": "ike",
    "1324": " cr",
    "1325": " hungry",
    "1326": " hair",
    "1327": " Suddenly",
    "1328": " paper",
    "1329": " feeling",
    "1330": " yellow",
    "1331": " full",
    "1332": "bo",
    "1333": " prin",
    "1334": "Sue",
    "1335": " touch",
    "1336": " As",
    "1337": "Anna",
    "1338": "Sam",
    "1339": " wet",
    "1340": " friendly",
    "1341": " per",
    "1342": "oom",
    "1343": "ken",
    "1344": "cked",
    "1345": "ached",
    "1346": " swing",
    "1347": " fruit",
    "1348": "ient",
    "1349": " broken",
    "1350": " ready",
    "1351": "bye",
    "1352": "ppy",
    "1353": " prom",
    "1354": " That",
    "1355": " another",
    "1356": " light",
    "1357": " pretend",
    "1358": " dance",
    "1359": "ater",
    "1360": " climbed",
    "1361": "where",
    "1362": " listened",
    "1363": " Bobo",
    "1364": " danc",
    "1365": " running",
    "1366": " only",
    "1367": " plan",
    "1368": " gone",
    "1369": " swim",
    "1370": "bbed",
    "1371": "Suddenly",
    "1372": "sh",
    "1373": " train",
    "1374": "ila",
    "1375": "ndma",
    "1376": "Sara",
    "1377": " Jane",
    "1378": " close",
    "1379": "av",
    "1380": "She",
    "1381": " smell",
    "1382": "So",
    "1383": "aby",
    "1384": " amaz",
    "1385": " hold",
    "1386": " blocks",
    "1387": " wonder",
    "1388": " Timmy",
    "1389": " repl",
    "1390": " All",
    "1391": " butterf",
    "1392": " sees",
    "1393": " reached",
    "1394": " wall",
    "1395": " pu",
    "1396": "oney",
    "1397": "red",
    "1398": " slow",
    "1399": " helping",
    "1400": " dri",
    "1401": " cream",
    "1402": " cool",
    "1403": " glad",
    "1404": "af",
    "1405": " ant",
    "1406": " less",
    "1407": " been",
    "1408": " goodbye",
    "1409": " ac",
    "1410": " fight",
    "1411": "ather",
    "1412": "Mia",
    "1413": " pushed",
    "1414": "iced",
    "1415": " fair",
    "1416": " must",
    "1417": " hide",
    "1418": " moment",
    "1419": " window",
    "1420": " O",
    "1421": " sit",
    "1422": " balloon",
    "1423": " snow",
    "1424": " child",
    "1425": " explore",
    "1426": " Everyone",
    "1427": " ar",
    "1428": " wished",
    "1429": " baby",
    "1430": " done",
    "1431": " wag",
    "1432": " ste",
    "1433": " buy",
    "1434": " stuck",
    "1435": " perf",
    "1436": " thank",
    "1437": " might",
    "1438": "icy",
    "1439": " name",
    "1440": "ized",
    "1441": " trying",
    "1442": " bit",
    "1443": " coming",
    "1444": " bar",
    "1445": " quick",
    "1446": " fall",
    "1447": " apple",
    "1448": "ash",
    "1449": " scary",
    "1450": " looks",
    "1451": " build",
    "1452": " doing",
    "1453": " win",
    "1454": " underst",
    "1455": "aisy",
    "1456": " din",
    "1457": " dream",
    "1458": " dirty",
    "1459": " held",
    "1460": "ames",
    "1461": " books",
    "1462": " mar",
    "1463": "In",
    "1464": " butterfly",
    "1465": " left",
    "1466": " shouted",
    "1467": " count",
    "1468": " replied",
    "1469": "avy",
    "1470": " reach",
    "1471": " tiny",
    "1472": " through",
    "1473": "ott",
    "1474": " dro",
    "1475": " why",
    "1476": " air",
    "1477": " bran",
    "1478": " land",
    "1479": "key",
    "1480": " three",
    "1481": " pulled",
    "1482": " spl",
    "1483": " grow",
    "1484": " treat",
    "1485": " brother",
    "1486": " wise",
    "1487": " woods",
    "1488": " sure",
    "1489": "'re",
    "1490": " chair",
    "1491": "ix",
    "1492": " mat",
    "1493": "ins",
    "1494": " seen",
    "1495": " pink",
    "1496": " clapped",
    "1497": " plant",
    "1498": "ely",
    "1499": " owl",
    "1500": " cup",
    "1501": "ield",
    "1502": " sometimes",
    "1503": "andy",
    "1504": " fill",
    "1505": " cloud",
    "1506": "ask",
    "1507": " swam",
    "1508": "outh",
    "1509": " job",
    "1510": " colorful",
    "1511": " remembered",
    "1512": " bigger",
    "1513": " nest",
    "1514": " mouth",
    "1515": "pe",
    "1516": "Okay",
    "1517": " lesson",
    "1518": " join",
    "1519": " cre",
    "1520": "ph",
    "1521": " There",
    "1522": "oup",
    "1523": "room",
    "1524": "art",
    "1525": " waved",
    "1526": "uddy",
    "1527": " grabbed",
    "1528": " stayed",
    "1529": "Oh",
    "1530": " paint",
    "1531": "This",
    "1532": " clot",
    "1533": " cont",
    "1534": " clothes",
    "1535": " ve",
    "1536": "ower",
    "1537": " After",
    "1538": " waited",
    "1539": " quickly",
    "1540": "cle",
    "1541": " word",
    "1542": " broke",
    "1543": "ucky",
    "1544": " games",
    "1545": " cast",
    "1546": " blew",
    "1547": " gent",
    "1548": " Mommy",
    "1549": " enjoyed",
    "1550": " noticed",
    "1551": "Jo",
    "1552": "ries",
    "1553": "ation",
    "1554": " set",
    "1555": " likes",
    "1556": " pictures",
    "1557": "ton",
    "1558": "de",
    "1559": " sea",
    "1560": " heavy",
    "1561": " mus",
    "1562": " alone",
    "1563": " gif",
    "1564": "asure",
    "1565": " anything",
    "1566": " spot",
    "1567": " miss",
    "1568": " hopped",
    "1569": " world",
    "1570": " turns",
    "1571": "orm",
    "1572": " year",
    "1573": "der",
    "1574": " bott",
    "1575": " pat",
    "1576": " pot",
    "1577": " pen",
    "1578": "lc",
    "1579": "Her",
    "1580": " mix",
    "1581": " arm",
    "1582": " bike",
    "1583": " tight",
    "1584": " everywhere",
    "1585": " won",
    "1586": "Lucy",
    "1587": " tower",
    "1588": " threw",
    "1589": " himself",
    "1590": " followed",
    "1591": " Buddy",
    "1592": " ride",
    "1593": "man",
    "1594": "less",
    "1595": " ju",
    "1596": " je",
    "1597": "amp",
    "1598": "Bob",
    "1599": "ape",
    "1600": " comp",
    "1601": " key",
    "1602": "row",
    "1603": "\".",
    "1604": " white",
    "1605": "ctor",
    "1606": " wrong",
    "1607": " Daisy",
    "1608": " makes",
    "1609": " What",
    "1610": " break",
    "1611": " black",
    "1612": "arent",
    "1613": "ee",
    "1614": "ner",
    "1615": "Spot",
    "1616": "Do",
    "1617": " deep",
    "1618": "thy",
    "1619": " music",
    "1620": " pol",
    "1621": " delic",
    "1622": "cess",
    "1623": "ued",
    "1624": " forgot",
    "1625": " bee",
    "1626": " parent",
    "1627": " castle",
    "1628": "ves",
    "1629": "olly",
    "1630": " em",
    "1631": "iet",
    "1632": " wear",
    "1633": " hit",
    "1634": "ister",
    "1635": "oun",
    "1636": " quiet",
    "1637": " round",
    "1638": "ance",
    "1639": " stu",
    "1640": " danced",
    "1641": " vis",
    "1642": "ully",
    "1643": " wants",
    "1644": " leaf",
    "1645": " monster",
    "1646": " nap",
    "1647": " John",
    "1648": " understand",
    "1649": "ang",
    "1650": " bowl",
    "1651": "os",
    "1652": "rot",
    "1653": "ren",
    "1654": " bor",
    "1655": " talked",
    "1656": "itten",
    "1657": " dry",
    "1658": " faster",
    "1659": " cookies",
    "1660": " brought",
    "1661": "fully",
    "1662": " leg",
    "1663": "ross",
    "1664": " mum",
    "1665": "zz",
    "1666": " side",
    "1667": "ts",
    "1668": "From",
    "1669": " sign",
    "1670": " Inside",
    "1671": " smart",
    "1672": "cy",
    "1673": " rocks",
    "1674": " someone",
    "1675": "His",
    "1676": " poin",
    "1677": " sec",
    "1678": " sharing",
    "1679": " fox",
    "1680": " well",
    "1681": " res",
    "1682": " rel",
    "1683": " happen",
    "1684": " button",
    "1685": " branch",
    "1686": " Lila",
    "1687": " really",
    "1688": " finished",
    "1689": "ence",
    "1690": "ards",
    "1691": " dinner",
    "1692": " sister",
    "1693": " flying",
    "1694": "eddy",
    "1695": " contin",
    "1696": " worried",
    "1697": " ele",
    "1698": " To",
    "1699": " visit",
    "1700": " Maybe",
    "1701": " beach",
    "1702": " que",
    "1703": " secret",
    "1704": " el",
    "1705": " Sarah",
    "1706": " king",
    "1707": "John",
    "1708": "gy",
    "1709": " today",
    "1710": " perfect",
    "1711": " river",
    "1712": " everything",
    "1713": " silly",
    "1714": " shin",
    "1715": " Joe",
    "1716": " danger",
    "1717": "ipp",
    "1718": " children",
    "1719": " gu",
    "1720": " Soon",
    "1721": " field",
    "1722": " filled",
    "1723": " fur",
    "1724": " else",
    "1725": " smiles",
    "1726": " welc",
    "1727": " At",
    "1728": " wish",
    "1729": " Em",
    "1730": "While",
    "1731": " sang",
    "1732": " gi",
    "1733": "ze",
    "1734": " pudd",
    "1735": " snack",
    "1736": " eating",
    "1737": " realized",
    "1738": " pieces",
    "1739": " promised",
    "1740": "ord",
    "1741": " spr",
    "1742": " pig",
    "1743": " free",
    "1744": " continued",
    "1745": " bite",
    "1746": "ead",
    "1747": " parents",
    "1748": " carefully",
    "1749": "ated",
    "1750": "itting",
    "1751": " ear",
    "1752": "Just",
    "1753": " jar",
    "1754": "Maybe",
    "1755": " cow",
    "1756": "Amy",
    "1757": " blank",
    "1758": " drag",
    "1759": "stead",
    "1760": " orange",
    "1761": " mud",
    "1762": " crying",
    "1763": " blanket",
    "1764": " enough",
    "1765": " rolled",
    "1766": "cket",
    "1767": " soup",
    "1768": " sail",
    "1769": " purp",
    "1770": "imi",
    "1771": " yes",
    "1772": "ale",
    "1773": " drink",
    "1774": " snake",
    "1775": "ses",
    "1776": " boun",
    "1777": " pet",
    "1778": " crab",
    "1779": " throw",
    "1780": " laughing",
    "1781": " fairy",
    "1782": " words",
    "1783": " amazing",
    "1784": " bath",
    "1785": "ich",
    "1786": " purple",
    "1787": " Z",
    "1788": " without",
    "1789": "ire",
    "1790": "ana",
    "1791": " bottle",
    "1792": " Billy",
    "1793": " gift",
    "1794": " grandma",
    "1795": "Fin",
    "1796": "used",
    "1797": "ons",
    "1798": " past",
    "1799": " money",
    "1800": "iver",
    "1801": "fort",
    "1802": " mail",
    "1803": " Gra",
    "1804": " barked",
    "1805": " wagged",
    "1806": " att",
    "1807": "chool",
    "1808": " monkey",
    "1809": " doctor",
    "1810": "unch",
    "1811": " brown",
    "1812": " moved",
    "1813": "ises",
    "1814": " asks",
    "1815": " getting",
    "1816": " closed",
    "1817": " whe",
    "1818": " welcome",
    "1819": " su",
    "1820": " candy",
    "1821": " school",
    "1822": " morning",
    "1823": " owner",
    "1824": "gg",
    "1825": " lon",
    "1826": " mother",
    "1827": " shini",
    "1828": " higher",
    "1829": " sitting",
    "1830": " treasure",
    "1831": ".\u201d",
    "1832": " smo",
    "1833": "!\u201d",
    "1834": " dangerous",
    "1835": " lonely",
    "1836": " Ch",
    "1837": " living",
    "1838": " apples",
    "1839": "ush",
    "1840": " shop",
    "1841": "ased",
    "1842": " strange",
    "1843": "vel",
    "1844": " road",
    "1845": "ere",
    "1846": " Tommy",
    "1847": " creat",
    "1848": "una",
    "1849": " paw",
    "1850": " ra",
    "1851": "ey",
    "1852": " shoes",
    "1853": " pre",
    "1854": "ible",
    "1855": " -",
    "1856": " stre",
    "1857": " talking",
    "1858": "althy",
    "1859": " caught",
    "1860": " egg",
    "1861": "ol",
    "1862": " pass",
    "1863": "me",
    "1864": " lake",
    "1865": " runs",
    "1866": " buck",
    "1867": " letter",
    "1868": " wings",
    "1869": " chee",
    "1870": "fish",
    "1871": " mad",
    "1872": " fan",
    "1873": "asket",
    "1874": " basket",
    "1875": "ass",
    "1876": " dragon",
    "1877": "app",
    "1878": "Mommy",
    "1879": "set",
    "1880": "cks",
    "1881": " stone",
    "1882": " thinks",
    "1883": " stand",
    "1884": " delicious",
    "1885": " nose",
    "1886": " puddle",
    "1887": " tom",
    "1888": " Bl",
    "1889": " Mimi",
    "1890": " belie",
    "1891": " farmer",
    "1892": " same",
    "1893": " years",
    "1894": "board",
    "1895": " teddy",
    "1896": " bat",
    "1897": "isk",
    "1898": "itch",
    "1899": " mine",
    "1900": " sear",
    "1901": " coat",
    "1902": "ches",
    "1903": "igh",
    "1904": " days",
    "1905": " bring",
    "1906": " gentle",
    "1907": " fit",
    "1908": " start",
    "1909": " finally",
    "1910": " whist",
    "1911": " cray",
    "1912": "igg",
    "1913": " scream",
    "1914": " kite",
    "1915": " pill",
    "1916": "phant",
    "1917": "arm",
    "1918": " vill",
    "1919": " cho",
    "1920": " singin",
    "1921": "ella",
    "1922": "sw",
    "1923": "ined",
    "1924": " tasty",
    "1925": " ph",
    "1926": " ben",
    "1927": " trou",
    "1928": " shell",
    "1929": " herself",
    "1930": " hoped",
    "1931": " answ",
    "1932": " wore",
    "1933": " swings",
    "1934": "sy",
    "1935": " hor",
    "1936": " belong",
    "1937": "Please",
    "1938": " push",
    "1939": " bush",
    "1940": "iskers",
    "1941": " carrot",
    "1942": " arri",
    "1943": "aughty",
    "1944": " teach",
    "1945": "bow",
    "1946": "ract",
    "1947": " naughty",
    "1948": " elephant",
    "1949": " dropped",
    "1950": " shap",
    "1951": " coll",
    "1952": "sc",
    "1953": " teac",
    "1954": "emy",
    "1955": " woke",
    "1956": "ball",
    "1957": " pile",
    "1958": " hiding",
    "1959": " cour",
    "1960": "isa",
    "1961": "erry",
    "1962": " touc",
    "1963": " min",
    "1964": " puppy",
    "1965": "'ll",
    "1966": "ier",
    "1967": " seem",
    "1968": "llie",
    "1969": " twins",
    "1970": "ama",
    "1971": " lunch",
    "1972": " bow",
    "1973": " sack",
    "1974": " pers",
    "1975": " course",
    "1976": " cheered",
    "1977": " shapes",
    "1978": " Jen",
    "1979": " grew",
    "1980": "fused",
    "1981": " rope",
    "1982": " village",
    "1983": "irth",
    "1984": "irthday",
    "1985": " juice",
    "1986": "ipped",
    "1987": " rainbow",
    "1988": " spin",
    "1989": "OK",
    "1990": " shook",
    "1991": "Jack",
    "1992": " spoon",
    "1993": " bench",
    "1994": " street",
    "1995": " fence",
    "1996": " cute",
    "1997": " Fred",
    "1998": " rob",
    "1999": " nut",
    "2000": " cheese",
    "2001": " prob",
    "2002": " touched",
    "2003": "idge",
    "2004": "col",
    "2005": " joy",
    "2006": " Whiskers",
    "2007": " arrived",
    "2008": " seed",
    "2009": " war",
    "2010": " teacher",
    "2011": " corn",
    "2012": "Good",
    "2013": " forever",
    "2014": " able",
    "2015": " bell",
    "2016": " few",
    "2017": " carry",
    "2018": " most",
    "2019": " plane",
    "2020": " Blue",
    "2021": "lem",
    "2022": " eas",
    "2023": " sounds",
    "2024": "lla",
    "2025": " des",
    "2026": " spo",
    "2027": " problem",
    "2028": " birthday",
    "2029": " power",
    "2030": " inc",
    "2031": "umb",
    "2032": "br",
    "2033": "\n ",
    "2034": " bugs",
    "2035": "ilk",
    "2036": " wonderful",
    "2037": " dolls",
    "2038": " busy",
    "2039": "ato",
    "2040": "irp",
    "2041": "eb",
    "2042": " wra",
    "2043": " promise",
    "2044": " Thank",
    "2045": " feels",
    "2046": " Emma",
    "2047": "eter",
    "2048": " bread",
    "2049": " neck",
    "2050": "Finally",
    "2051": " milk",
    "2052": " robot",
    "2053": " rec",
    "2054": "ian",
    "2055": " shy",
    "2056": "ountain",
    "2057": " kiss",
    "2058": "irt",
    "2059": " heart",
    "2060": " band",
    "2061": " cave",
    "2062": " pocket",
    "2063": "ub",
    "2064": " helpful",
    "2065": "gly",
    "2066": " slowly",
    "2067": " believe",
    "2068": " shake",
    "2069": "umpy",
    "2070": "eared",
    "2071": " patient",
    "2072": " pop",
    "2073": " ob",
    "2074": "arp",
    "2075": " live",
    "2076": " storm",
    "2077": " holding",
    "2078": " ugly",
    "2079": " towards",
    "2080": " upset",
    "2081": " turt",
    "2082": " shr",
    "2083": "adow",
    "2084": " cover",
    "2085": " kitten",
    "2086": "ost",
    "2087": " Remy",
    "2088": " sharp",
    "2089": " disapp",
    "2090": " stories",
    "2091": " suc",
    "2092": " honey",
    "2093": "ove",
    "2094": " Bella",
    "2095": "read",
    "2096": " noises",
    "2097": " Le",
    "2098": " cir",
    "2099": " balls",
    "2100": " spark",
    "2101": " gray",
    "2102": " dist",
    "2103": " dirt",
    "2104": "oggy",
    "2105": " late",
    "2106": " driver",
    "2107": " seat",
    "2108": " bucket",
    "2109": " meet",
    "2110": " young",
    "2111": " amazed",
    "2112": " turtle",
    "2113": "alm",
    "2114": " spid",
    "2115": " treats",
    "2116": " magical",
    "2117": "unt",
    "2118": "ator",
    "2119": " glow",
    "2120": " seek",
    "2121": " zoom",
    "2122": " lem",
    "2123": " sandw",
    "2124": "fortable",
    "2125": "umber",
    "2126": " trip",
    "2127": " mist",
    "2128": "ourn",
    "2129": " splas",
    "2130": " mark",
    "2131": " journ",
    "2132": " fold",
    "2133": " mach",
    "2134": " puzz",
    "2135": " part",
    "2136": "ling",
    "2137": " horse",
    "2138": " organ",
    "2139": " wild",
    "2140": " princess",
    "2141": "pping",
    "2142": "oose",
    "2143": " cookie",
    "2144": "Sure",
    "2145": "ens",
    "2146": " hugs",
    "2147": " Mark",
    "2148": " taking",
    "2149": "ung",
    "2150": " wheel",
    "2151": "epend",
    "2152": " cloth",
    "2153": " Lisa",
    "2154": " sug",
    "2155": " instead",
    "2156": " bubb",
    "2157": " string",
    "2158": " net",
    "2159": " drove",
    "2160": "iling",
    "2161": " rude",
    "2162": " huge",
    "2163": " Jim",
    "2164": " coin",
    "2165": " stars",
    "2166": " fighting",
    "2167": "Be",
    "2168": " spicy",
    "2169": " lucky",
    "2170": "Of",
    "2171": " craw",
    "2172": "Hey",
    "2173": " bone",
    "2174": " inv",
    "2175": " Grandma",
    "2176": "ors",
    "2177": "not",
    "2178": " ca",
    "2179": "pper",
    "2180": " forget",
    "2181": "up",
    "2182": " di",
    "2183": "aur",
    "2184": " sal",
    "2185": " Finally",
    "2186": " cannot",
    "2187": " whistle",
    "2188": " card",
    "2189": " sick",
    "2190": " path",
    "2191": " cou",
    "2192": " spider",
    "2193": " wide",
    "2194": "Lila",
    "2195": " foot",
    "2196": " snowman",
    "2197": " songs",
    "2198": " life",
    "2199": " pillow",
    "2200": "ize",
    "2201": "ular",
    "2202": " Just",
    "2203": "Later",
    "2204": "est",
    "2205": " Ann",
    "2206": "ert",
    "2207": " fixed",
    "2208": " giant",
    "2209": "oph",
    "2210": "rill",
    "2211": " nod",
    "2212": " boss",
    "2213": " last",
    "2214": " comes",
    "2215": " joke",
    "2216": " moon",
    "2217": " taste",
    "2218": "den",
    "2219": " machine",
    "2220": " grumpy",
    "2221": " wave",
    "2222": " thin",
    "2223": " drive",
    "2224": " cart",
    "2225": " ash",
    "2226": " ser",
    "2227": " grab",
    "2228": " peace",
    "2229": "lower",
    "2230": " daddy",
    "2231": " On",
    "2232": " Leo",
    "2233": "ery",
    "2234": " sel",
    "2235": " shelf",
    "2236": " hidden",
    "2237": "erest",
    "2238": " suddenly",
    "2239": " wasn",
    "2240": " write",
    "2241": " landed",
    "2242": " confused",
    "2243": " ring",
    "2244": " change",
    "2245": " worm",
    "2246": " interest",
    "2247": " chased",
    "2248": "oop",
    "2249": " fruits",
    "2250": " sour",
    "2251": "ity",
    "2252": " myster",
    "2253": " bark",
    "2254": " rad",
    "2255": " smooth",
    "2256": " Come",
    "2257": " adventures",
    "2258": " val",
    "2259": " stepped",
    "2260": " fle",
    "2261": "ope",
    "2262": " oven",
    "2263": " takes",
    "2264": " missed",
    "2265": " selfish",
    "2266": "kin",
    "2267": " sheep",
    "2268": " messy",
    "2269": "To",
    "2270": " across",
    "2271": " ent",
    "2272": " exp",
    "2273": "to",
    "2274": " ce",
    "2275": " later",
    "2276": "elly",
    "2277": " N",
    "2278": "ife",
    "2279": " sticks",
    "2280": " tie",
    "2281": "St",
    "2282": "ever",
    "2283": " Luna",
    "2284": " step",
    "2285": " bought",
    "2286": " drew",
    "2287": " tea",
    "2288": "pect",
    "2289": "irpy",
    "2290": "box",
    "2291": "?\u201d",
    "2292": " wash",
    "2293": " lay",
    "2294": " pour",
    "2295": " beak",
    "2296": "ose",
    "2297": " jog",
    "2298": " grate",
    "2299": " ducks",
    "2300": " spe",
    "2301": " legs",
    "2302": "ugg",
    "2303": " fil",
    "2304": " Bu",
    "2305": " emp",
    "2306": "mer",
    "2307": " hope",
    "2308": " empty",
    "2309": " slid",
    "2310": " feather",
    "2311": " sleepy",
    "2312": " drum",
    "2313": "amed",
    "2314": "ars",
    "2315": "eth",
    "2316": " zoo",
    "2317": " pan",
    "2318": " phone",
    "2319": " grateful",
    "2320": " fing",
    "2321": "ions",
    "2322": " lemon",
    "2323": "let",
    "2324": " Cat",
    "2325": " clever",
    "2326": " Molly",
    "2327": " smelly",
    "2328": " imag",
    "2329": " splash",
    "2330": " interesting",
    "2331": " Jill",
    "2332": " save",
    "2333": " chick",
    "2334": " calm",
    "2335": " med",
    "2336": " watching",
    "2337": "Soon",
    "2338": "izzy",
    "2339": "izz",
    "2340": " plate",
    "2341": " ign",
    "2342": "yard",
    "2343": " clouds",
    "2344": " bana",
    "2345": " line",
    "2346": " faces",
    "2347": " ba",
    "2348": " act",
    "2349": " lift",
    "2350": " though",
    "2351": " wolf",
    "2352": " backyard",
    "2353": "wel",
    "2354": " seemed",
    "2355": " dogs",
    "2356": " spray",
    "2357": "Come",
    "2358": " prot",
    "2359": " whole",
    "2360": " mot",
    "2361": " fancy",
    "2362": " Daddy",
    "2363": " quest",
    "2364": " arms",
    "2365": " puzzle",
    "2366": " healthy",
    "2367": " supp",
    "2368": "ward",
    "2369": " finish",
    "2370": "erly",
    "2371": " along",
    "2372": "llo",
    "2373": " rocket",
    "2374": " explain",
    "2375": "dge",
    "2376": " easy",
    "2377": " jewel",
    "2378": "ont",
    "2379": " pract",
    "2380": " jelly",
    "2381": " Chirpy",
    "2382": " tid",
    "2383": " fake",
    "2384": " crayons",
    "2385": " wondered",
    "2386": " maybe",
    "2387": " scar",
    "2388": " ship",
    "2389": " nothing",
    "2390": "onest",
    "2391": " emb",
    "2392": "iger",
    "2393": " pool",
    "2394": " longer",
    "2395": " anyone",
    "2396": " Be",
    "2397": " Jerry",
    "2398": "ually",
    "2399": " front",
    "2400": " working",
    "2401": " gives",
    "2402": "irr",
    "2403": " pack",
    "2404": " such",
    "2405": " Bunny",
    "2406": "ocked",
    "2407": "ment",
    "2408": " bossy",
    "2409": " Doggy",
    "2410": " trouble",
    "2411": " smelled",
    "2412": " saved",
    "2413": " pin",
    "2414": "rass",
    "2415": " neigh",
    "2416": "arrass",
    "2417": "iting",
    "2418": " honest",
    "2419": " av",
    "2420": "arge",
    "2421": " embarrass",
    "2422": " van",
    "2423": " forgive",
    "2424": " tidy",
    "2425": " weak",
    "2426": "urse",
    "2427": " puts",
    "2428": "unk",
    "2429": " kick",
    "2430": " shirt",
    "2431": " With",
    "2432": " mind",
    "2433": " Ollie",
    "2434": " neighb",
    "2435": " plants",
    "2436": " sol",
    "2437": " Momo",
    "2438": " gently",
    "2439": " cozy",
    "2440": "orrow",
    "2441": "ming",
    "2442": " explor",
    "2443": "sp",
    "2444": " mistake",
    "2445": " yog",
    "2446": "oc",
    "2447": "oomy",
    "2448": " pointed",
    "2449": " lad",
    "2450": " af",
    "2451": " stood",
    "2452": "ork",
    "2453": " onto",
    "2454": " waiting",
    "2455": " jumping",
    "2456": " prince",
    "2457": " cross",
    "2458": " lock",
    "2459": " cheer",
    "2460": " queen",
    "2461": " Why",
    "2462": " Mary",
    "2463": " wing",
    "2464": "ones",
    "2465": "we",
    "2466": " large",
    "2467": " lovely",
    "2468": "ult",
    "2469": " sur",
    "2470": " ret",
    "2471": "And",
    "2472": " deer",
    "2473": " chew",
    "2474": " couch",
    "2475": " bal",
    "2476": "aughter",
    "2477": " stret",
    "2478": "era",
    "2479": " Their",
    "2480": " places",
    "2481": " My",
    "2482": " ladder",
    "2483": "oof",
    "2484": " return",
    "2485": "raid",
    "2486": " ants",
    "2487": " dish",
    "2488": " afraid",
    "2489": " cleaned",
    "2490": " tomorrow",
    "2491": " building",
    "2492": " sandwich",
    "2493": " person",
    "2494": "Sally",
    "2495": "ned",
    "2496": " pretended",
    "2497": " bounce",
    "2498": " wip",
    "2499": "gest",
    "2500": " match",
    "2501": " rich",
    "2502": "uce",
    "2503": " pizz",
    "2504": " gather",
    "2505": " search",
    "2506": " boring",
    "2507": "oman",
    "2508": " Somet",
    "2509": " teeth",
    "2510": " hum",
    "2511": "Kitty",
    "2512": "My",
    "2513": "aced",
    "2514": " daughter",
    "2515": " woman",
    "2516": " scarf",
    "2517": " goes",
    "2518": " Together",
    "2519": " law",
    "2520": " stra",
    "2521": " swimming",
    "2522": " furry",
    "2523": " splashed",
    "2524": " pri",
    "2525": " loves",
    "2526": " true",
    "2527": " screamed",
    "2528": " lazy",
    "2529": " gen",
    "2530": " answer",
    "2531": " number",
    "2532": " eag",
    "2533": " ashamed",
    "2534": " pizza",
    "2535": "aw",
    "2536": " appeared",
    "2537": " fear",
    "2538": " nearby",
    "2539": " powerful",
    "2540": " flag",
    "2541": " St",
    "2542": " hang",
    "2543": "vous",
    "2544": " clown",
    "2545": "ek",
    "2546": " chase",
    "2547": " motor",
    "2548": " wand",
    "2549": " TV",
    "2550": " rub",
    "2551": " success",
    "2552": " chocol",
    "2553": " If",
    "2554": " creative",
    "2555": " trust",
    "2556": " wearing",
    "2557": " noisy",
    "2558": " matter",
    "2559": "pa",
    "2560": " dig",
    "2561": " hello",
    "2562": " ner",
    "2563": " tool",
    "2564": " saf",
    "2565": " Bird",
    "2566": "ado",
    "2567": " nervous",
    "2568": "elp",
    "2569": " test",
    "2570": " smiling",
    "2571": " sold",
    "2572": "icked",
    "2573": "oppy",
    "2574": "osaur",
    "2575": " circle",
    "2576": "mb",
    "2577": " map",
    "2578": " drank",
    "2579": " class",
    "2580": " tries",
    "2581": " chocolate",
    "2582": " Please",
    "2583": " impress",
    "2584": " knee",
    "2585": " gener",
    "2586": " dinosaur",
    "2587": " polite",
    "2588": " mirr",
    "2589": " Bobby",
    "2590": " Tiny",
    "2591": " balloons",
    "2592": " gold",
    "2593": " rare",
    "2594": " protect",
    "2595": " cand",
    "2596": "Stop",
    "2597": " carried",
    "2598": " Go",
    "2599": "ensive",
    "2600": " ap",
    "2601": " shadow",
    "2602": " mirror",
    "2603": " Don",
    "2604": " bald",
    "2605": " gun",
    "2606": "ina",
    "2607": " expensive",
    "2608": " reg",
    "2609": "iff",
    "2610": " mysterious",
    "2611": " Sp",
    "2612": " pump",
    "2613": " note",
    "2614": " hero",
    "2615": " march",
    "2616": " har",
    "2617": "arl",
    "2618": " icy",
    "2619": " respect",
    "2620": " weird",
    "2621": " snee",
    "2622": " cri",
    "2623": " gate",
    "2624": " soap",
    "2625": "rag",
    "2626": "ute",
    "2627": "issors",
    "2628": " these",
    "2629": " poor",
    "2630": " towel",
    "2631": " whale",
    "2632": " feet",
    "2633": " tape",
    "2634": " dizzy",
    "2635": "itter",
    "2636": " generous",
    "2637": "ndpa",
    "2638": " pres",
    "2639": " Benny",
    "2640": "nic",
    "2641": " disco",
    "2642": "Help",
    "2643": "ventually",
    "2644": " picnic",
    "2645": " mic",
    "2646": " lead",
    "2647": " sque",
    "2648": " embarrassed",
    "2649": " journey",
    "2650": " sugar",
    "2651": "isp",
    "2652": "scape",
    "2653": " boot",
    "2654": " tent",
    "2655": " peaceful",
    "2656": " fat",
    "2657": " Bear",
    "2658": " scissors",
    "2659": " tasted",
    "2660": " yelled",
    "2661": "Tommy",
    "2662": " tick",
    "2663": " mel",
    "2664": " brush",
    "2665": " dancing",
    "2666": "ness",
    "2667": " glue",
    "2668": " hur",
    "2669": " rough",
    "2670": " clap",
    "2671": " bridge",
    "2672": "ote",
    "2673": " decor",
    "2674": " closet",
    "2675": " crown",
    "2676": " stir",
    "2677": "ual",
    "2678": "imp",
    "2679": " print",
    "2680": " Sometimes",
    "2681": "owed",
    "2682": "airs",
    "2683": " How",
    "2684": "ume",
    "2685": " cap",
    "2686": " lamp",
    "2687": " vase",
    "2688": " scare",
    "2689": "lebr",
    "2690": " relie",
    "2691": "lves",
    "2692": "any",
    "2693": " eld",
    "2694": " tele",
    "2695": " celebr",
    "2696": " gigg",
    "2697": " whisp",
    "2698": " log",
    "2699": " sco",
    "2700": " blow",
    "2701": " painted",
    "2702": " Ducky",
    "2703": " pay",
    "2704": "erries",
    "2705": " wis",
    "2706": " berries",
    "2707": " mixed",
    "2708": " spread",
    "2709": " wouldn",
    "2710": " cage",
    "2711": " bake",
    "2712": "rob",
    "2713": "getable",
    "2714": " mountain",
    "2715": " adm",
    "2716": " drawing",
    "2717": " become",
    "2718": " famous",
    "2719": " knocked",
    "2720": " bean",
    "2721": " norm",
    "2722": " vegetable",
    "2723": "asp",
    "2724": " kicked",
    "2725": "ustr",
    "2726": " shark",
    "2727": "ser",
    "2728": " incred",
    "2729": " lose",
    "2730": " normal",
    "2731": " wrap",
    "2732": "ced",
    "2733": " group",
    "2734": " thick",
    "2735": " 3",
    "2736": " fine",
    "2737": " glass",
    "2738": " ignor",
    "2739": " clock",
    "2740": " team",
    "2741": " elderly",
    "2742": " clear",
    "2743": " corner",
    "2744": " frustr",
    "2745": " mighty",
    "2746": "robe",
    "2747": " cone",
    "2748": " incredible",
    "2749": " Br",
    "2750": "ighed",
    "2751": "Dad",
    "2752": " moms",
    "2753": " balance",
    "2754": " sock",
    "2755": " space",
    "2756": " jam",
    "2757": "ragile",
    "2758": " fright",
    "2759": " organized",
    "2760": " branches",
    "2761": " roar",
    "2762": "port",
    "2763": " sword",
    "2764": "alous",
    "2765": " Mama",
    "2766": " guess",
    "2767": " fool",
    "2768": " sell",
    "2769": " feed",
    "2770": " Some",
    "2771": " which",
    "2772": " horn",
    "2773": " present",
    "2774": " jealous",
    "2775": " yarn",
    "2776": "ony",
    "2777": " fragile",
    "2778": " burn",
    "2779": " understood",
    "2780": " mis",
    "2781": " stubb",
    "2782": " ter",
    "2783": " frustrated",
    "2784": "Where",
    "2785": "ray",
    "2786": " hose",
    "2787": "cient",
    "2788": "anged",
    "2789": " spent",
    "2790": " shoe",
    "2791": " taught",
    "2792": " stubborn",
    "2793": " twist",
    "2794": " creature",
    "2795": " chest",
    "2796": " spoiled",
    "2797": " relieved",
    "2798": " ancient",
    "2799": "ique",
    "2800": " wake",
    "2801": " fier",
    "2802": " pray",
    "2803": " fierce",
    "2804": " eggs",
    "2805": " cab",
    "2806": " terri",
    "2807": " barn",
    "2808": " pumpkin",
    "2809": " comfortable",
    "2810": " ord",
    "2811": "ym",
    "2812": " frightened",
    "2813": "orry",
    "2814": " toug",
    "2815": " unique",
    "2816": " measure",
    "2817": " goat",
    "2818": " wagon",
    "2819": " unus",
    "2820": " breath",
    "2821": " foolish",
    "2822": " useful",
    "2823": " exploring",
    "2824": "dle",
    "2825": " straw",
    "2826": " unusual",
    "2827": " dug",
    "2828": " clay",
    "2829": " discover",
    "2830": " tomato",
    "2831": " Pe",
    "2832": " dead",
    "2833": " finding",
    "2834": " police",
    "2835": " wrote",
    "2836": " clum",
    "2837": " exam",
    "2838": "lace",
    "2839": " waves",
    "2840": " square",
    "2841": " hears",
    "2842": " cabin",
    "2843": " tells",
    "2844": " necklace",
    "2845": " dull",
    "2846": " clumsy",
    "2847": " tough",
    "2848": " bubbles",
    "2849": " nosy",
    "2850": "kn",
    "2851": " searched",
    "2852": "Together",
    "2853": " washed",
    "2854": " bathroom",
    "2855": " paws",
    "2856": "bby",
    "2857": "ond",
    "2858": "unn",
    "2859": " board",
    "2860": "fic",
    "2861": "known",
    "2862": " asking",
    "2863": " crazy",
    "2864": " thankful",
    "2865": " sunf",
    "2866": " bitter",
    "2867": "yal",
    "2868": " pir",
    "2869": "berry",
    "2870": "alk",
    "2871": " ind",
    "2872": " diffic",
    "2873": " rose",
    "2874": "cil",
    "2875": " swan",
    "2876": " bloom",
    "2877": " unknown",
    "2878": " Ella",
    "2879": " covered",
    "2880": " difficult",
    "2881": " add",
    "2882": " pencil",
    "2883": " finger",
    "2884": " ham",
    "2885": " hoop",
    "2886": " jet",
    "2887": " witch",
    "2888": " drop",
    "2889": "Me",
    "2890": " '",
    "2891": " chicken",
    "2892": " gloomy",
    "2893": "apped",
    "2894": " loyal",
    "2895": "als",
    "2896": "Here",
    "2897": " wealthy",
    "2898": "com",
    "2899": "light",
    "2900": " unl",
    "2901": " cats",
    "2902": " ending",
    "2903": " guit",
    "2904": "bled",
    "2905": "shine",
    "2906": " dove",
    "2907": " joined",
    "2908": " cher",
    "2909": "anut",
    "2910": " mov",
    "2911": " terrible",
    "2912": " yours",
    "2913": "iant",
    "2914": " U",
    "2915": " Rex",
    "2916": " salad",
    "2917": " Andy",
    "2918": " nuts",
    "2919": " rat",
    "2920": "ground",
    "2921": " tiger",
    "2922": " potato",
    "2923": " mask",
    "2924": "xible",
    "2925": "selves",
    "2926": " value",
    "2927": " changed",
    "2928": " moving",
    "2929": " exciting",
    "2930": "ormous",
    "2931": " Many",
    "2932": " body",
    "2933": " Tr",
    "2934": " toast",
    "2935": " record",
    "2936": "erp",
    "2937": " zip",
    "2938": " disg",
    "2939": " cheap",
    "2940": " guitar",
    "2941": "irsty",
    "2942": " knowing",
    "2943": " adventur",
    "2944": " yourself",
    "2945": " enormous",
    "2946": " hairy",
    "2947": "Every",
    "2948": " shoot",
    "2949": " Brown",
    "2950": " bored",
    "2951": " pepper",
    "2952": " remind",
    "2953": "ory",
    "2954": " acorn",
    "2955": "land",
    "2956": " adventurous",
    "2957": " sunshine",
    "2958": " smaller",
    "2959": " stuff",
    "2960": " hats",
    "2961": " solve",
    "2962": " Jimmy",
    "2963": " flexible",
    "2964": " cost",
    "2965": "rilliant",
    "2966": " knife",
    "2967": " perform",
    "2968": " snacks",
    "2969": " nods",
    "2970": " shore",
    "2971": " brilliant",
    "2972": " thirsty",
    "2973": " delicate",
    "2974": " frown",
    "2975": " disgust",
    "2976": " collect",
    "2977": " stri",
    "2978": " seeds",
    "2979": " counted",
    "2980": " asleep",
    "2981": "reen",
    "2982": " mailbox",
    "2983": "iness",
    "2984": " dough",
    "2985": " trick",
    "2986": " neighbor",
    "2987": "ungle",
    "2988": " heal",
    "2989": "live",
    "2990": "Who",
    "2991": " stage",
    "2992": "ident",
    "2993": " market",
    "2994": " cube",
    "2995": " stat",
    "2996": " jungle",
    "2997": " squee",
    "2998": "mbre",
    "2999": " explained",
    "3000": "ates",
    "3001": " umbre",
    "3002": " disgusting",
    "3003": "Jim",
    "3004": "fted",
    "3005": " lab",
    "3006": " jolly",
    "3007": " flash",
    "3008": "und",
    "3009": " fridge",
    "3010": "inal",
    "3011": "pid",
    "3012": "ilt",
    "3013": " crane",
    "3014": "corn",
    "3015": " suit",
    "3016": " rh",
    "3017": "iddle",
    "3018": " sunflower",
    "3019": " times",
    "3020": " Al",
    "3021": "erpill",
    "3022": " caterpill",
    "3023": " relax",
    "3024": " shiver",
    "3025": " four",
    "3026": " island",
    "3027": "iginal",
    "3028": " harm",
    "3029": "ict",
    "3030": " While",
    "3031": "ying",
    "3032": " stupid",
    "3033": " medic",
    "3034": " Instead",
    "3035": " comb",
    "3036": " goose",
    "3037": " cro",
    "3038": "edient",
    "3039": " Will",
    "3040": " stove",
    "3041": "If",
    "3042": "Are",
    "3043": " independ",
    "3044": "Mum",
    "3045": "most",
    "3046": " spring",
    "3047": " gem",
    "3048": " batter",
    "3049": " sighed",
    "3050": " vegetables",
    "3051": " stones",
    "3052": "pes",
    "3053": " shine",
    "3054": "How",
    "3055": " medicine",
    "3056": " depend",
    "3057": " rug",
    "3058": " Your",
    "3059": " careless",
    "3060": " original",
    "3061": " stamp",
    "3062": " gar",
    "3063": " cries",
    "3064": "Inside",
    "3065": "gu",
    "3066": " carrots",
    "3067": " scr",
    "3068": " successful",
    "3069": " sauce",
    "3070": " jeep",
    "3071": " popcorn",
    "3072": " meal",
    "3073": " obedient",
    "3074": " almost",
    "3075": " middle",
    "3076": " magn",
    "3077": " study",
    "3078": " independent",
    "3079": " fearful",
    "3080": " jack",
    "3081": "met",
    "3082": "inky",
    "3083": "Sorry",
    "3084": " Sammy",
    "3085": " escape",
    "3086": " caterpillar",
    "3087": " serious",
    "3088": " peanut",
    "3089": " bedroom",
    "3090": " eager",
    "3091": "aken",
    "3092": " gets",
    "3093": " parrot",
    "3094": " statue",
    "3095": " helmet",
    "3096": " pebb",
    "3097": " No",
    "3098": " fountain",
    "3099": " raven",
    "3100": " ang",
    "3101": " pasta",
    "3102": " umbrella",
    "3103": " compet",
    "3104": "There",
    "3105": " jacket",
    "3106": " belonged",
    "3107": " dest",
    "3108": " filthy",
    "3109": " design",
    "3110": " borrow",
    "3111": " cam",
    "3112": "erable",
    "3113": " houses",
    "3114": " prize",
    "3115": " hay",
    "3116": " brace",
    "3117": " standing",
    "3118": " miserable",
    "3119": " raced",
    "3120": " taken",
    "3121": "ages",
    "3122": " fork",
    "3123": " crayon",
    "3124": " painting",
    "3125": "io",
    "3126": " triang",
    "3127": " impressive",
    "3128": " choose",
    "3129": " fig",
    "3130": " tied",
    "3131": "iable",
    "3132": " spotted",
    "3133": " lifted",
    "3134": " slipped",
    "3135": "ours",
    "3136": " tank",
    "3137": " thoughtful",
    "3138": " dependable",
    "3139": " steal",
    "3140": " garage",
    "3141": "enny",
    "3142": " built",
    "3143": " mush",
    "3144": " er",
    "3145": "ipe",
    "3146": " mole",
    "3147": " crawled",
    "3148": " scale",
    "3149": " boats",
    "3150": " pian",
    "3151": " pant",
    "3152": " hammer",
    "3153": " bottom",
    "3154": "lph",
    "3155": " cheerful",
    "3156": " using",
    "3157": " smoke",
    "3158": " picks",
    "3159": " moder",
    "3160": "berries",
    "3161": " shows",
    "3162": "rn",
    "3163": " piano",
    "3164": " magnet",
    "3165": "dile",
    "3166": "codile",
    "3167": " hurts",
    "3168": "inary",
    "3169": " ref",
    "3170": " crack",
    "3171": " eng",
    "3172": " aunt",
    "3173": " melon",
    "3174": " waff",
    "3175": " modern",
    "3176": " dolph",
    "3177": "unnel",
    "3178": "cream",
    "3179": "pack",
    "3180": " tunnel",
    "3181": "oin",
    "3182": " arrow",
    "3183": " reliable",
    "3184": " hopping",
    "3185": " mushroom",
    "3186": " jug",
    "3187": "Timmy",
    "3188": " squash",
    "3189": " gum",
    "3190": " sink",
    "3191": " movie",
    "3192": " tax",
    "3193": " flute",
    "3194": " beet",
    "3195": " lean",
    "3196": "Their",
    "3197": "iv",
    "3198": " popular",
    "3199": "opter",
    "3200": "icopter",
    "3201": " cryst",
    "3202": " ones",
    "3203": " sil",
    "3204": " competit",
    "3205": " helicopter",
    "3206": "aser",
    "3207": " needs",
    "3208": "ipop",
    "3209": "llipop",
    "3210": " crocodile",
    "3211": " liz",
    "3212": "Molly",
    "3213": " press",
    "3214": " troubled",
    "3215": " pige",
    "3216": " locked",
    "3217": " tricks",
    "3218": " lollipop",
    "3219": " playful",
    "3220": " humble",
    "3221": " taxi",
    "3222": " kissed",
    "3223": " low",
    "3224": "appy",
    "3225": "comfortable",
    "3226": "amond",
    "3227": " uncomfortable",
    "3228": " rid",
    "3229": "host",
    "3230": " wander",
    "3231": "atch",
    "3232": " angel",
    "3233": "edy",
    "3234": "cles",
    "3235": " torn",
    "3236": " grace",
    "3237": " anx",
    "3238": " wrapped",
    "3239": " muff",
    "3240": " twig",
    "3241": " pants",
    "3242": " disappoin",
    "3243": " Sn",
    "3244": " helps",
    "3245": " diamond",
    "3246": " camera",
    "3247": "atter",
    "3248": "oto",
    "3249": " anxious",
    "3250": " ghost",
    "3251": " tears",
    "3252": " ruined",
    "3253": "cident",
    "3254": " Jenny",
    "3255": "ilty",
    "3256": " quar",
    "3257": "aff",
    "3258": " Even",
    "3259": " fis",
    "3260": "opl",
    "3261": " belt",
    "3262": "eropl",
    "3263": " env",
    "3264": " guilty",
    "3265": " bull",
    "3266": " aeropl",
    "3267": " helpless",
    "3268": " happiness",
    "3269": " lizard",
    "3270": " boys",
    "3271": "cut",
    "3272": "ext",
    "3273": " cere",
    "3274": " walks",
    "3275": "cean",
    "3276": " passed",
    "3277": " meant",
    "3278": " ocean",
    "3279": " fluffy",
    "3280": " wire",
    "3281": " nail",
    "3282": " bracelet",
    "3283": " deaf",
    "3284": "zed",
    "3285": " stretch",
    "3286": " candle",
    "3287": " cact",
    "3288": "tt",
    "3289": " beetle",
    "3290": " mop",
    "3291": " harmless",
    "3292": "umpet",
    "3293": " ordinary",
    "3294": " answered",
    "3295": " collar",
    "3296": " cop",
    "3297": " bees",
    "3298": " tire",
    "3299": " shape",
    "3300": " quarrel",
    "3301": " radio",
    "3302": " flashlight",
    "3303": " crystal",
    "3304": " harder",
    "3305": " poured",
    "3306": " trumpet",
    "3307": " engine",
    "3308": "Mama",
    "3309": " persist",
    "3310": " hunt",
    "3311": " tooth",
    "3312": " cereal",
    "3313": " invited",
    "3314": " comput",
    "3315": " tag",
    "3316": " office",
    "3317": " melt",
    "3318": " spill",
    "3319": " charm",
    "3320": "coa",
    "3321": " lit",
    "3322": " scoot",
    "3323": " comet",
    "3324": " triangle",
    "3325": "ief",
    "3326": " mug",
    "3327": " rep",
    "3328": "ube",
    "3329": " yogurt",
    "3330": " spend",
    "3331": " compass",
    "3332": " accident",
    "3333": " shade",
    "3334": "hett",
    "3335": "aghett",
    "3336": "aghetti",
    "3337": " disappointed",
    "3338": " licked",
    "3339": " cactus",
    "3340": " pale",
    "3341": " cush",
    "3342": " figure",
    "3343": " regular",
    "3344": " giving",
    "3345": " avoc",
    "3346": " pro",
    "3347": " sheet",
    "3348": " whispered",
    "3349": "aze",
    "3350": "uth",
    "3351": "ellig",
    "3352": " create",
    "3353": " barber",
    "3354": " intellig",
    "3355": " pipe",
    "3356": " rode",
    "3357": " roof",
    "3358": "Jane",
    "3359": " thread",
    "3360": "ither",
    "3361": " vi",
    "3362": " load",
    "3363": " libr",
    "3364": " gifted",
    "3365": "ccol",
    "3366": " practiced",
    "3367": " delight",
    "3368": "ccoli",
    "3369": " harsh",
    "3370": "asses",
    "3371": " pow",
    "3372": " dust",
    "3373": " True",
    "3374": " bicy",
    "3375": "azz",
    "3376": " spaghetti",
    "3377": " compassion",
    "3378": " sailed",
    "3379": "urkey",
    "3380": "ubby",
    "3381": " forward",
    "3382": " persistent",
    "3383": " speed",
    "3384": " mitten",
    "3385": " cocoa",
    "3386": " envel",
    "3387": " questions",
    "3388": " computer",
    "3389": " coo",
    "3390": " feathers",
    "3391": "hip",
    "3392": " glove",
    "3393": "ging",
    "3394": "Bobo",
    "3395": " rice",
    "3396": " shrimp",
    "3397": " desk",
    "3398": " stream",
    "3399": " inse",
    "3400": " pigeon",
    "3401": " charming",
    "3402": " ears",
    "3403": " carp",
    "3404": "lcan",
    "3405": " raft",
    "3406": " envious",
    "3407": " knot",
    "3408": " turkey",
    "3409": " stronger",
    "3410": "omes",
    "3411": " coins",
    "3412": " tap",
    "3413": "lcano",
    "3414": "weet",
    "3415": " trap",
    "3416": "umbers",
    "3417": " aeroplane",
    "3418": " trunk",
    "3419": " wheat",
    "3420": " boxes",
    "3421": " chubby",
    "3422": " carpet",
    "3423": " restless",
    "3424": " intelligent",
    "3425": " tube",
    "3426": " spun",
    "3427": " dreams",
    "3428": " friendship",
    "3429": "ulif",
    "3430": "olin",
    "3431": " half",
    "3432": " loop",
    "3433": " crawl",
    "3434": " broccoli",
    "3435": " onion",
    "3436": " deliver",
    "3437": "anger",
    "3438": " acce",
    "3439": " vide",
    "3440": " volcano",
    "3441": " Jake",
    "3442": " sle",
    "3443": " track",
    "3444": " bri",
    "3445": " caulif",
    "3446": " vine",
    "3447": "ye",
    "3448": " ticket",
    "3449": " thief",
    "3450": "essie",
    "3451": "cycle",
    "3452": " louder",
    "3453": " insect",
    "3454": " numbers",
    "3455": "asing",
    "3456": " yaw",
    "3457": " haircut",
    "3458": "ital",
    "3459": " sleeping",
    "3460": " mill",
    "3461": " eventually",
    "3462": " alert",
    "3463": " excite",
    "3464": " pebble",
    "3465": " hosp",
    "3466": " attract",
    "3467": " planet",
    "3468": " Today",
    "3469": " univer",
    "3470": "isted",
    "3471": "ulu",
    "3472": " hospital",
    "3473": " eraser",
    "3474": " returned",
    "3475": " destro",
    "3476": " graceful",
    "3477": " happening",
    "3478": "ache",
    "3479": " OK",
    "3480": " Emily",
    "3481": " decide",
    "3482": " learning",
    "3483": " screen",
    "3484": "rework",
    "3485": " nicely",
    "3486": " leop",
    "3487": " cauliflower",
    "3488": " competitive",
    "3489": " poem",
    "3490": " celebrate",
    "3491": " curt",
    "3492": " peach",
    "3493": " soldier",
    "3494": " saus",
    "3495": " parade",
    "3496": "atient",
    "3497": " attractive",
    "3498": " curtain",
    "3499": " dolphin",
    "3500": " base",
    "3501": " violin",
    "3502": " ways",
    "3503": "Go",
    "3504": "ats",
    "3505": " travel",
    "3506": "ten",
    "3507": " rod",
    "3508": " ignorant",
    "3509": "ulb",
    "3510": " wheels",
    "3511": " yach",
    "3512": " scatter",
    "3513": " deter",
    "3514": " compassionate",
    "3515": " barrel",
    "3516": " envelope",
    "3517": " bubble",
    "3518": " lying",
    "3519": " firework",
    "3520": " sort",
    "3521": " question",
    "3522": "zzy",
    "3523": " Pipp",
    "3524": " scooter",
    "3525": " determ",
    "3526": " rag",
    "3527": " thu",
    "3528": " bicycle",
    "3529": "elery",
    "3530": " needle",
    "3531": " Fr",
    "3532": " judge",
    "3533": " bulb",
    "3534": " leopard",
    "3535": " tem",
    "3536": " yacht",
    "3537": " pony",
    "3538": " cricket",
    "3539": " order",
    "3540": " homes",
    "3541": " ador",
    "3542": "tern",
    "3543": " truth",
    "3544": " hook",
    "3545": "dom",
    "3546": " rubbed",
    "3547": "ete",
    "3548": "igator",
    "3549": " bushes",
    "3550": "Sarah",
    "3551": " uncle",
    "3552": " cushion",
    "3553": " spell",
    "3554": " grown",
    "3555": " cooked",
    "3556": " adorable",
    "3557": " chalk",
    "3558": " soar",
    "3559": " purse",
    "3560": " skin",
    "3561": " themselves",
    "3562": " impatient",
    "3563": " celery",
    "3564": " tray",
    "3565": " shells",
    "3566": " pengu",
    "3567": " sniff",
    "3568": " prun",
    "3569": " walls",
    "3570": " seal",
    "3571": " lively",
    "3572": " case",
    "3573": " alligator",
    "3574": " distant",
    "3575": " radish",
    "3576": " saying",
    "3577": " speak",
    "3578": " motorcycle",
    "3579": " meat",
    "3580": " send",
    "3581": "illa",
    "3582": " spinning",
    "3583": " forth",
    "3584": " counting",
    "3585": " enth",
    "3586": " bounced",
    "3587": " chain",
    "3588": " ed",
    "3589": " cleaning",
    "3590": "ebra",
    "3591": " film",
    "3592": " slept",
    "3593": " pit",
    "3594": " surf",
    "3595": " marry",
    "3596": "usia",
    "3597": " wallet",
    "3598": " enthusia",
    "3599": " metal",
    "3600": "urb",
    "3601": "ebook",
    "3602": " bin",
    "3603": " week",
    "3604": " notebook",
    "3605": " wiped",
    "3606": " skip",
    "3607": "ision",
    "3608": "chair",
    "3609": " biggest",
    "3610": " impro",
    "3611": " avocado",
    "3612": " behave",
    "3613": " destroy",
    "3614": "vator",
    "3615": " bandage",
    "3616": " laughs",
    "3617": " steak",
    "3618": " pattern",
    "3619": " Sh",
    "3620": " post",
    "3621": " elevator",
    "3622": " Buzz",
    "3623": "usie",
    "3624": " dive",
    "3625": " shut",
    "3626": " skipped",
    "3627": " unlock",
    "3628": " diary",
    "3629": "dest",
    "3630": "ject",
    "3631": " zebra",
    "3632": " bags",
    "3633": "ating",
    "3634": " armchair",
    "3635": "rage",
    "3636": "aged",
    "3637": " disturb",
    "3638": " oy",
    "3639": " pole",
    "3640": " showing",
    "3641": " gathered",
    "3642": " club",
    "3643": " nurse",
    "3644": "bul",
    "3645": " earth",
    "3646": " enc",
    "3647": " stranger",
    "3648": " sweater",
    "3649": " jellyfish",
    "3650": " screw",
    "3651": " temp",
    "3652": " Poppy",
    "3653": " compl",
    "3654": " mixer",
    "3655": "Give",
    "3656": " skull",
    "3657": " lime",
    "3658": " bump",
    "3659": "bulance",
    "3660": " ambulance",
    "3661": "nam",
    "3662": " father",
    "3663": " journal",
    "3664": "Gra",
    "3665": " loudly",
    "3666": "ito",
    "3667": " folder",
    "3668": " shield",
    "3669": " Bet",
    "3670": " Lulu",
    "3671": " library",
    "3672": " Peter",
    "3673": " buttons",
    "3674": " playground",
    "3675": " trucks",
    "3676": " ink",
    "3677": " lights",
    "3678": " tummy",
    "3679": " pointing",
    "3680": " city",
    "3681": " decorate",
    "3682": " station",
    "3683": "irit",
    "3684": " prep",
    "3685": " falls",
    "3686": "quito",
    "3687": " Polly",
    "3688": "Billy",
    "3689": " fu",
    "3690": " Fo",
    "3691": "ention",
    "3692": "nger",
    "3693": " Birdy",
    "3694": "lies",
    "3695": " herb",
    "3696": "nament",
    "3697": " ornament",
    "3698": " modest",
    "3699": " guard",
    "3700": " mos",
    "3701": " knows",
    "3702": " cord",
    "3703": " polish",
    "3704": " marble",
    "3705": "oby",
    "3706": " mosquito",
    "3707": "umbled",
    "3708": " salt",
    "3709": " attic",
    "3710": " whenever",
    "3711": " vest",
    "3712": "ctop",
    "3713": " resc",
    "3714": " yet",
    "3715": " ple",
    "3716": " disappeared",
    "3717": "ceed",
    "3718": " strawberry",
    "3719": " once",
    "3720": " Mum",
    "3721": " kay",
    "3722": " brothers",
    "3723": " itch",
    "3724": " pirate",
    "3725": " football",
    "3726": " split",
    "3727": "kele",
    "3728": "keleton",
    "3729": " hipp",
    "3730": " aut",
    "3731": " led",
    "3732": "uring",
    "3733": "ctopus",
    "3734": " driving",
    "3735": " cable",
    "3736": " support",
    "3737": " calling",
    "3738": " cupboard",
    "3739": "aky",
    "3740": "ushed",
    "3741": " wishes",
    "3742": " complet",
    "3743": " tripped",
    "3744": " root",
    "3745": " kayak",
    "3746": " octopus",
    "3747": "obile",
    "3748": " added",
    "3749": " edge",
    "3750": " mild",
    "3751": "stic",
    "3752": " determined",
    "3753": " succeed",
    "3754": "?\".",
    "3755": " reading",
    "3756": "omobile",
    "3757": " coal",
    "3758": "Well",
    "3759": "gl",
    "3760": "utes",
    "3761": "par",
    "3762": " suggest",
    "3763": " stack",
    "3764": " thunder",
    "3765": " kindness",
    "3766": " automobile",
    "3767": " complain",
    "3768": " enthusiastic",
    "3769": " sneeze",
    "3770": " cartoon",
    "3771": " yoga",
    "3772": " Little",
    "3773": " growl",
    "3774": "htub",
    "3775": " flea",
    "3776": " meadow",
    "3777": "la",
    "3778": " drawer",
    "3779": " bathtub",
    "3780": " ribb",
    "3781": "ophone",
    "3782": " means",
    "3783": " hall",
    "3784": " golf",
    "3785": " skeleton",
    "3786": " math",
    "3787": " veil",
    "3788": " hunter",
    "3789": " gor",
    "3790": " flame",
    "3791": " poke",
    "3792": " video",
    "3793": " chess",
    "3794": " troph",
    "3795": " cups",
    "3796": " glowing",
    "3797": " matt",
    "3798": " oyster",
    "3799": "work",
    "3800": " penny",
    "3801": " spear",
    "3802": " itself",
    "3803": " drawings",
    "3804": " hippo",
    "3805": " repair",
    "3806": " switch",
    "3807": "glasses",
    "3808": " sunglasses",
    "3809": " teleph",
    "3810": " costume",
    "3811": " dess",
    "3812": " zipp",
    "3813": ",\u201d",
    "3814": " repe",
    "3815": " muffin",
    "3816": " arg",
    "3817": " pastry",
    "3818": " pun",
    "3819": " rolling",
    "3820": " minutes",
    "3821": " packed",
    "3822": " makeup",
    "3823": "iron",
    "3824": "ric",
    "3825": " People",
    "3826": " waffle",
    "3827": "case",
    "3828": " handle",
    "3829": " pear",
    "3830": " maze",
    "3831": " telephone",
    "3832": " pine",
    "3833": "ait",
    "3834": " gear",
    "3835": " hedge",
    "3836": " mattress",
    "3837": " package",
    "3838": "aving",
    "3839": " Miss",
    "3840": " shocked",
    "3841": "ines",
    "3842": " trophy",
    "3843": " powder",
    "3844": " knight",
    "3845": " cob",
    "3846": " missile",
    "3847": " managed",
    "3848": " frame",
    "3849": " encou",
    "3850": " wife",
    "3851": " ok",
    "3852": " separ",
    "3853": "web",
    "3854": " stairs",
    "3855": " rot",
    "3856": " camp",
    "3857": "urch",
    "3858": "rophone",
    "3859": " magaz",
    "3860": " strugg",
    "3861": " colour",
    "3862": " grapes",
    "3863": "time",
    "3864": " file",
    "3865": "head",
    "3866": " Tina",
    "3867": " basketball",
    "3868": "Bye",
    "3869": "old",
    "3870": "per",
    "3871": " cobweb",
    "3872": "Re",
    "3873": "Jimmy",
    "3874": "anas",
    "3875": " Tweet",
    "3876": "See",
    "3877": " perm",
    "3878": " wool",
    "3879": " microphone",
    "3880": "esday",
    "3881": " eye",
    "3882": " leash",
    "3883": " gasp",
    "3884": "iew",
    "3885": "keep",
    "3886": " weep",
    "3887": " barking",
    "3888": "ature",
    "3889": " safely",
    "3890": " Dan",
    "3891": " tear",
    "3892": " view",
    "3893": "ffe",
    "3894": " slides",
    "3895": " steps",
    "3896": "istol",
    "3897": "ffee",
    "3898": " staff",
    "3899": " spirit",
    "3900": " task",
    "3901": " giggled",
    "3902": " hoc",
    "3903": " hockey",
    "3904": " vend",
    "3905": " those",
    "3906": " gorilla",
    "3907": "Jill",
    "3908": " cooler",
    "3909": " Rose",
    "3910": "was",
    "3911": "cing",
    "3912": " early",
    "3913": " marched",
    "3914": "rosc",
    "3915": " mint",
    "3916": " Look",
    "3917": "washer",
    "3918": " flour",
    "3919": " hotel",
    "3920": "hic",
    "3921": " sailor",
    "3922": " dessert",
    "3923": " photo",
    "3924": "roscope",
    "3925": " vehic",
    "3926": "ilot",
    "3927": " often",
    "3928": " church",
    "3929": " Pete",
    "3930": " cooking",
    "3931": " remain",
    "3932": " five",
    "3933": " sausage",
    "3934": "otter",
    "3935": " ten",
    "3936": " tools",
    "3937": " medal",
    "3938": " either",
    "3939": " fireman",
    "3940": "chor",
    "3941": " grandpa",
    "3942": " otter",
    "3943": " baseball",
    "3944": " pretending",
    "3945": " pistol",
    "3946": " dishwasher",
    "3947": " rever",
    "3948": " organize",
    "3949": " pee",
    "3950": " vendor",
    "3951": " knock",
    "3952": " sight",
    "3953": " grill",
    "3954": " temple",
    "3955": " battery",
    "3956": " thinking",
    "3957": " opens",
    "3958": " ow",
    "3959": " realised",
    "3960": " iron",
    "3961": " laser",
    "3962": " sne",
    "3963": " sandbox",
    "3964": " oil",
    "3965": " patch",
    "3966": " hours",
    "3967": " rise",
    "3968": " whip",
    "3969": "'d",
    "3970": "ctory",
    "3971": " Give",
    "3972": " anchor",
    "3973": " trash",
    "3974": "ense",
    "3975": " short",
    "3976": "ney",
    "3977": " Betty",
    "3978": " rhin",
    "3979": " factory",
    "3980": "seum",
    "3981": " may",
    "3982": " ward",
    "3983": "ately",
    "3984": " cardboard",
    "3985": "ugged",
    "3986": " lotion",
    "3987": "Al",
    "3988": " message",
    "3989": " valu",
    "3990": " wardrobe",
    "3991": " cell",
    "3992": " museum",
    "3993": "apers",
    "3994": " ur",
    "3995": "ination",
    "3996": " hanging",
    "3997": "ucet",
    "3998": "ailable",
    "3999": " Sunny",
    "4000": " Zoom",
    "4001": " hive",
    "4002": "eer",
    "4003": " towers",
    "4004": "keeper",
    "4005": " blackboard",
    "4006": " mem",
    "4007": " excitement",
    "4008": " coffee",
    "4009": " pilot",
    "4010": "ready",
    "4011": "Fluffy",
    "4012": " napkin",
    "4013": " penguin",
    "4014": "ron",
    "4015": " check",
    "4016": " reward",
    "4017": "loo",
    "4018": " quit",
    "4019": " Pippin",
    "4020": " cane",
    "4021": " picking",
    "4022": "place",
    "4023": " Snow",
    "4024": "azor",
    "4025": " faucet",
    "4026": " ig",
    "4027": " passport",
    "4028": " Rob",
    "4029": " stumbled",
    "4030": " dreamed",
    "4031": " igloo",
    "4032": " Bessie",
    "4033": "aroo",
    "4034": "angaroo",
    "4035": " freez",
    "4036": " juicy",
    "4037": " allowed",
    "4038": "play",
    "4039": " holds",
    "4040": " already",
    "4041": " available",
    "4042": " sett",
    "4043": " bathe",
    "4044": " tornado",
    "4045": "imney",
    "4046": " fingers",
    "4047": "htray",
    "4048": " hanger",
    "4049": " newsp",
    "4050": " size",
    "4051": " laund",
    "4052": " lend",
    "4053": " chimney",
    "4054": " laundry",
    "4055": " oak",
    "4056": " fisher",
    "4057": " kangaroo",
    "4058": " men",
    "4059": " Everywhere",
    "4060": " telling",
    "4061": "Em",
    "4062": " novel",
    "4063": "body",
    "4064": " mummy",
    "4065": " pal",
    "4066": " mule",
    "4067": " cherries",
    "4068": " notice",
    "4069": " practice",
    "4070": " spilled",
    "4071": " reind",
    "4072": " complete",
    "4073": " enjoying",
    "4074": " microscope",
    "4075": "ampoo",
    "4076": " gain",
    "4077": " sub",
    "4078": " fireplace",
    "4079": " imagine",
    "4080": "anda",
    "4081": "arian",
    "4082": " display",
    "4083": "ocer",
    "4084": " Zip",
    "4085": " fastest",
    "4086": " magazine",
    "4087": " hurry",
    "4088": " cabinet",
    "4089": " shrink",
    "4090": " ashtray",
    "4091": "Wait",
    "4092": " cows",
    "4093": " Spike",
    "4094": "Joe",
    "4095": "gen",
    "4096": " palace",
    "4097": " improve",
    "4098": "aches",
    "4099": " rake",
    "4100": " reindeer",
    "4101": " falling",
    "4102": "oceros",
    "4103": " skirt",
    "4104": "ured",
    "4105": " discovered",
    "4106": " stared",
    "4107": " roared",
    "4108": "aid",
    "4109": " silver",
    "4110": " tub",
    "4111": " trail",
    "4112": "Is",
    "4113": " miner",
    "4114": "come",
    "4115": " bill",
    "4116": "iction",
    "4117": " fog",
    "4118": " ax",
    "4119": "stairs",
    "4120": "ilet",
    "4121": " hut",
    "4122": " happier",
    "4123": " taller",
    "4124": "ictionary",
    "4125": " oats",
    "4126": " fisherman",
    "4127": " object",
    "4128": " por",
    "4129": "vision",
    "4130": " valuable",
    "4131": " shampoo",
    "4132": " holes",
    "4133": " offered",
    "4134": " boots",
    "4135": " rhinoceros",
    "4136": " names",
    "4137": " toilet",
    "4138": " climbing",
    "4139": " blin",
    "4140": "vice",
    "4141": "Ow",
    "4142": " stretched",
    "4143": "iest",
    "4144": " zipper",
    "4145": " listening",
    "4146": " sym",
    "4147": " bathrobe",
    "4148": "alend",
    "4149": " jewelry",
    "4150": " Here",
    "4151": " jokes",
    "4152": " television",
    "4153": " prov",
    "4154": " calend",
    "4155": " stops",
    "4156": " axe",
    "4157": " jumps",
    "4158": " fuel",
    "4159": "cu",
    "4160": " sparkly",
    "4161": " perfume",
    "4162": " Susie",
    "4163": " bury",
    "4164": "bol",
    "4165": "Mummy",
    "4166": "lu",
    "4167": " pressed",
    "4168": " Kim",
    "4169": "reek",
    "4170": " rece",
    "4171": "fa",
    "4172": " Toby",
    "4173": " neat",
    "4174": " creek",
    "4175": " popped",
    "4176": " opera",
    "4177": " calendar",
    "4178": " snap",
    "4179": " gasped",
    "4180": " attach",
    "4181": " symbol",
    "4182": " Mar",
    "4183": " tuna",
    "4184": " papers",
    "4185": "Mr",
    "4186": " unpack",
    "4187": " resist",
    "4188": " dictionary",
    "4189": " subway",
    "4190": " letters",
    "4191": " freezer",
    "4192": " chose",
    "4193": " pinch",
    "4194": "zag",
    "4195": " spoke",
    "4196": " anyway",
    "4197": " super",
    "4198": " porch",
    "4199": " helper",
    "4200": "affe",
    "4201": " bikes",
    "4202": " lie",
    "4203": "arry",
    "4204": "iches",
    "4205": " tightly",
    "4206": " comfort",
    "4207": " shaking",
    "4208": " bookcase",
    "4209": " son",
    "4210": " razor",
    "4211": "aurant",
    "4212": " sandwiches",
    "4213": " Are",
    "4214": "igzag",
    "4215": " weigh",
    "4216": " against",
    "4217": " stickers",
    "4218": " restaurant",
    "4219": " newspaper",
    "4220": " blouse",
    "4221": " vehicle",
    "4222": " swingin",
    "4223": " ped",
    "4224": " disag",
    "4225": " nature",
    "4226": " squirrels",
    "4227": "ival",
    "4228": " belongs",
    "4229": " swamp",
    "4230": " butterflies",
    "4231": " gym",
    "4232": "del",
    "4233": " inclu",
    "4234": " growing",
    "4235": " buckle",
    "4236": "omed",
    "4237": " stirred",
    "4238": " mustache",
    "4239": " billboard",
    "4240": "xy",
    "4241": " beep",
    "4242": "te",
    "4243": " alarm",
    "4244": " lightning",
    "4245": " lip",
    "4246": " fest",
    "4247": " hung",
    "4248": "utor",
    "4249": " distance",
    "4250": "ogn",
    "4251": " cards",
    "4252": " obser",
    "4253": " agree",
    "4254": "Little",
    "4255": " ext",
    "4256": " tease",
    "4257": " recogn",
    "4258": " rubber",
    "4259": "ik",
    "4260": " hate",
    "4261": "fast",
    "4262": "ef",
    "4263": "Ouch",
    "4264": " doesn",
    "4265": " musician",
    "4266": " advice",
    "4267": " beef",
    "4268": " serve",
    "4269": "aspoon",
    "4270": " sweetie",
    "4271": " model",
    "4272": "lter",
    "4273": " crib",
    "4274": " blueberries",
    "4275": " sofa",
    "4276": " circles",
    "4277": " breakfast",
    "4278": " tutor",
    "4279": "asis",
    "4280": " bookshe",
    "4281": " giraffe",
    "4282": "stri",
    "4283": " festival",
    "4284": " separate",
    "4285": " shelter",
    "4286": " gas",
    "4287": " airport",
    "4288": " olive",
    "4289": " rail",
    "4290": " bookshelf",
    "4291": " frogs",
    "4292": " teaspoon",
    "4293": " reverse",
    "4294": " junk",
    "4295": " riding",
    "4296": " pleased",
    "4297": " drain",
    "4298": " Mrs",
    "4299": " wipe",
    "4300": " oasis",
    "4301": " soil",
    "4302": " ahead",
    "4303": " rescue",
    "4304": " leaving",
    "4305": "ummer",
    "4306": " painter",
    "4307": " squeeze",
    "4308": " chance",
    "4309": " poked",
    "4310": " knob",
    "4311": " Teddy",
    "4312": " peeked",
    "4313": " lumber",
    "4314": " trains",
    "4315": " extra",
    "4316": " slipp",
    "4317": " quiz",
    "4318": " refused",
    "4319": "res",
    "4320": "rmomet",
    "4321": " page",
    "4322": " rules",
    "4323": " happens",
    "4324": " sounded",
    "4325": " ins",
    "4326": " point",
    "4327": " winter",
    "4328": " dancer",
    "4329": " Grandpa",
    "4330": " birdc",
    "4331": " disappear",
    "4332": "rmometer",
    "4333": " Dolly",
    "4334": " weather",
    "4335": " waste",
    "4336": " lic",
    "4337": " birdcage",
    "4338": " theater",
    "4339": " reef",
    "4340": " carrying",
    "4341": "Daisy",
    "4342": " invite",
    "4343": "iform",
    "4344": " goal",
    "4345": " ostri",
    "4346": " uniform",
    "4347": " swung",
    "4348": " trade",
    "4349": " cliff",
    "4350": "ience",
    "4351": " lawn",
    "4352": "ola",
    "4353": " leaned",
    "4354": " Pandy",
    "4355": "angu",
    "4356": " accept",
    "4357": " admire",
    "4358": " fort",
    "4359": " accidentally",
    "4360": " pastel",
    "4361": "bbles",
    "4362": " stom",
    "4363": " langu",
    "4364": " twir",
    "4365": " suff",
    "4366": " panda",
    "4367": "riger",
    "4368": " bet",
    "4369": "rigerator",
    "4370": " peek",
    "4371": "render",
    "4372": " blinked",
    "4373": " starts",
    "4374": "na",
    "4375": " refrigerator",
    "4376": " anywhere",
    "4377": "!\".",
    "4378": " imagined",
    "4379": " dreaming",
    "4380": " remove",
    "4381": "night",
    "4382": " shower",
    "4383": " Lee",
    "4384": " Co",
    "4385": " classroom",
    "4386": " ceiling",
    "4387": " caring",
    "4388": "ium",
    "4389": " grand",
    "4390": " missing",
    "4391": "aked",
    "4392": " license",
    "4393": " stable",
    "4394": " thermometer",
    "4395": " monkeys",
    "4396": "astic",
    "4397": " warned",
    "4398": " summer",
    "4399": " Where",
    "4400": " above",
    "4401": " brick",
    "4402": "ected",
    "4403": " cudd",
    "4404": " problems",
    "4405": "amber",
    "4406": " chasing",
    "4407": " label",
    "4408": " apron",
    "4409": " sent",
    "4410": "urnit",
    "4411": "urniture",
    "4412": " lawy",
    "4413": " lid",
    "4414": "uggage",
    "4415": "med",
    "4416": " respectful",
    "4417": " furniture",
    "4418": " frowned",
    "4419": " zoomed",
    "4420": " pages",
    "4421": " prevent",
    "4422": " bent",
    "4423": " luggage",
    "4424": " mistakes",
    "4425": " sunset",
    "4426": " ostrich",
    "4427": "ison",
    "4428": " suggested",
    "4429": " windows",
    "4430": "ations",
    "4431": " jail",
    "4432": "low",
    "4433": " wine",
    "4434": " ribbon",
    "4435": " older",
    "4436": " shouts",
    "4437": " grape",
    "4438": " Cl",
    "4439": " wigg",
    "4440": "ucture",
    "4441": " structure",
    "4442": " spoil",
    "4443": "eor",
    "4444": " fixing",
    "4445": " chamber",
    "4446": " lions",
    "4447": " delay",
    "4448": " finds",
    "4449": " handed",
    "4450": " searching",
    "4451": " unite",
    "4452": "Did",
    "4453": " fought",
    "4454": " lawyer",
    "4455": " brightly",
    "4456": " pair",
    "4457": " meeting",
    "4458": " choice",
    "4459": " surprises",
    "4460": " Ellie",
    "4461": " art",
    "4462": " Un",
    "4463": "Ch",
    "4464": " favour",
    "4465": "eterin",
    "4466": "eterinarian",
    "4467": "adium",
    "4468": " stadium",
    "4469": " proudly",
    "4470": "iki",
    "4471": " veterinarian",
    "4472": "vet",
    "4473": "rod",
    "4474": " chairs",
    "4475": " slip",
    "4476": " Spe",
    "4477": " sadly",
    "4478": " Bow",
    "4479": " incre",
    "4480": " Carl",
    "4481": " puddles",
    "4482": " berry",
    "4483": " introd",
    "4484": " ranch",
    "4485": "veal",
    "4486": " Boun",
    "4487": " argue",
    "4488": " V",
    "4489": " admired",
    "4490": " cur",
    "4491": " favourite",
    "4492": "Your",
    "4493": " inf",
    "4494": " excitedly",
    "4495": " rac",
    "4496": " grabs",
    "4497": "mend",
    "4498": " steam",
    "4499": "thank",
    "4500": " human",
    "4501": "eorge",
    "4502": "sity",
    "4503": " Hel",
    "4504": " pushing",
    "4505": " saving",
    "4506": " Red",
    "4507": " reveal",
    "4508": "ommend",
    "4509": "alley",
    "4510": " yield",
    "4511": "olog",
    "4512": " mall",
    "4513": " reminded",
    "4514": " recommend",
    "4515": " leak",
    "4516": " surrender",
    "4517": " harb",
    "4518": " appl",
    "4519": "cuss",
    "4520": "aul",
    "4521": " weap",
    "4522": " regret",
    "4523": " putting",
    "4524": " valley",
    "4525": " mineral",
    "4526": " evening",
    "4527": "elcome",
    "4528": " matches",
    "4529": " forgave",
    "4530": " sneezed",
    "4531": " pup",
    "4532": " aw",
    "4533": " rushed",
    "4534": "ecause",
    "4535": " spade",
    "4536": " apolog",
    "4537": " plates",
    "4538": " discuss",
    "4539": " prepare",
    "4540": " harbor",
    "4541": " ignore",
    "4542": " Big",
    "4543": " country",
    "4544": " language",
    "4545": " Buzzy",
    "4546": " pulls",
    "4547": " plastic",
    "4548": " supply",
    "4549": " float",
    "4550": " sniffed",
    "4551": " Jazz",
    "4552": " replace",
    "4553": " meas",
    "4554": " shovel",
    "4555": " Bill",
    "4556": " raise",
    "4557": " Next",
    "4558": " fre",
    "4559": " cared",
    "4560": " socks",
    "4561": " strip",
    "4562": " doors",
    "4563": " mystery",
    "4564": " lives",
    "4565": " restore",
    "4566": " sticker",
    "4567": " sudden",
    "4568": "ari",
    "4569": " kinds",
    "4570": " slippery",
    "4571": "ero",
    "4572": " Ow",
    "4573": " player",
    "4574": " panic",
    "4575": "ricane",
    "4576": " hoping",
    "4577": "iday",
    "4578": " shone",
    "4579": "lex",
    "4580": "hero",
    "4581": " beg",
    "4582": " Mike",
    "4583": " Binky",
    "4584": " superhero",
    "4585": " delighted",
    "4586": " gro",
    "4587": "Yay",
    "4588": "aud",
    "4589": "chan",
    "4590": " chickens",
    "4591": " shoulder",
    "4592": " rained",
    "4593": " colourful",
    "4594": " breat",
    "4595": " Alice",
    "4596": " claw",
    "4597": " Bubbles",
    "4598": "Yuck",
    "4599": " softly",
    "4600": "rise",
    "4601": " port",
    "4602": "Grandma",
    "4603": " hol",
    "4604": "icer",
    "4605": " holiday",
    "4606": " \ufffd",
    "4607": " barks",
    "4608": "ason",
    "4609": " throwing",
    "4610": " planes",
    "4611": "Mary",
    "4612": " bend",
    "4613": " Freddy",
    "4614": " shakes",
    "4615": " infant",
    "4616": " ended",
    "4617": " shivering",
    "4618": " kneel",
    "4619": " sunrise",
    "4620": " pushes",
    "4621": " Olive",
    "4622": " thanks",
    "4623": " fresh",
    "4624": " suffer",
    "4625": " points",
    "4626": "imed",
    "4627": "wards",
    "4628": " Pat",
    "4629": " tip",
    "4630": " Speedy",
    "4631": " freeze",
    "4632": " keeping",
    "4633": " Would",
    "4634": " giggle",
    "4635": " copper",
    "4636": " smells",
    "4637": " dear",
    "4638": " enter",
    "4639": " provide",
    "4640": "cast",
    "4641": "chanic",
    "4642": " dishes",
    "4643": " End",
    "4644": "cond",
    "4645": " unh",
    "4646": "Next",
    "4647": " applaud",
    "4648": " heads",
    "4649": " hurricane",
    "4650": " cherry",
    "4651": " thumb",
    "4652": " menu",
    "4653": " meowed",
    "4654": " mass",
    "4655": " second",
    "4656": " brighter",
    "4657": "ince",
    "4658": " sandcast",
    "4659": " mechanic",
    "4660": " wre",
    "4661": " sprayed",
    "4662": " letting",
    "4663": " event",
    "4664": " weapon",
    "4665": " laught",
    "4666": " x",
    "4667": " laughter",
    "4668": " clapping",
    "4669": " feelings",
    "4670": "Will",
    "4671": "icky",
    "4672": " splashing",
    "4673": "ement",
    "4674": " Or",
    "4675": "acked",
    "4676": " castles",
    "4677": " Fl",
    "4678": "cer",
    "4679": " score",
    "4680": "apping",
    "4681": " universe",
    "4682": " navy",
    "4683": " dem",
    "4684": " sticky",
    "4685": "ophie",
    "4686": " rooms",
    "4687": " row",
    "4688": " flies",
    "4689": "igi",
    "4690": " Dave",
    "4691": " unhappy",
    "4692": " greedy",
    "4693": " dare",
    "4694": " alive",
    "4695": " breaks",
    "4696": " ener",
    "4697": " courage",
    "4698": " invit",
    "4699": "Ready",
    "4700": " repeat",
    "4701": " demand",
    "4702": " trusted",
    "4703": "Lisa",
    "4704": " somewhere",
    "4705": "arlie",
    "4706": " prune",
    "4707": "bles",
    "4708": " wreck",
    "4709": " Y",
    "4710": " skill",
    "4711": " examine",
    "4712": " parts",
    "4713": "year",
    "4714": " eaten",
    "4715": "oe",
    "4716": "All",
    "4717": "erc",
    "4718": "enry",
    "4719": " mention",
    "4720": " raini",
    "4721": " Help",
    "4722": "Buddy",
    "4723": " throws",
    "4724": " jogged",
    "4725": "quest",
    "4726": " starting",
    "4727": " rush",
    "4728": " poison",
    "4729": " pirates",
    "4730": "heart",
    "4731": " vac",
    "4732": " content",
    "4733": "Emma",
    "4734": " Kiki",
    "4735": " sigh",
    "4736": " flapped",
    "4737": " drops",
    "4738": " chirp",
    "4739": " sport",
    "4740": "Qu",
    "4741": " sparkled",
    "4742": " Zoomy",
    "4743": " given",
    "4744": " streng",
    "4745": " steel",
    "4746": "Ann",
    "4747": " bumped",
    "4748": " yawned",
    "4749": " stud",
    "4750": " request",
    "4751": " scold",
    "4752": " myself",
    "4753": " strength",
    "4754": " shrugged",
    "4755": "Mark",
    "4756": " coats",
    "4757": " punish",
    "4758": " equ",
    "4759": " snugg",
    "4760": " university",
    "4761": " paid",
    "4762": " Johnny",
    "4763": " pigs",
    "4764": " scratch",
    "4765": " toe",
    "4766": " exerc",
    "4767": " tracks",
    "4768": " upstairs",
    "4769": " prayed",
    "4770": " crossed",
    "4771": " squeezed",
    "4772": " impressed",
    "4773": " flood",
    "4774": " bouncing",
    "4775": " Ru",
    "4776": "Alice",
    "4777": " rabbits",
    "4778": "ges",
    "4779": " badly",
    "4780": "..",
    "4781": " warn",
    "4782": " leather",
    "4783": " expect",
    "4784": " news",
    "4785": " tide",
    "4786": " Ted",
    "4787": " minute",
    "4788": " bears",
    "4789": " claws",
    "4790": " buzz",
    "4791": " sweetheart",
    "4792": " Sm",
    "4793": "yth",
    "4794": " nation",
    "4795": "Sh",
    "4796": "ythm",
    "4797": " vacation",
    "4798": " hist",
    "4799": " heat",
    "4800": " strawberries",
    "4801": " observe",
    "4802": " explored",
    "4803": " settle",
    "4804": " sandcastle",
    "4805": " yawn",
    "4806": " history",
    "4807": " Lilly",
    "4808": " Lola",
    "4809": "mare",
    "4810": " Mummy",
    "4811": " Sque",
    "4812": "ially",
    "4813": "inking",
    "4814": " believed",
    "4815": " horses",
    "4816": "Daddy",
    "4817": " Hoppy",
    "4818": " checked",
    "4819": " Mandy",
    "4820": " tour",
    "4821": " network",
    "4822": " cheek",
    "4823": " Under",
    "4824": " offer",
    "4825": " easily",
    "4826": " placed",
    "4827": "spec",
    "4828": " spots",
    "4829": " snowball",
    "4830": "ween",
    "4831": "men",
    "4832": " energy",
    "4833": " Bee",
    "4834": " imagination",
    "4835": " blueberry",
    "4836": "otten",
    "4837": " between",
    "4838": "specially",
    "4839": " Gigi",
    "4840": "izes",
    "4841": " daisy",
    "4842": " waving",
    "4843": "reeze",
    "4844": "reat",
    "4845": " vroom",
    "4846": " soak",
    "4847": " safari",
    "4848": " rhythm",
    "4849": " massage",
    "4850": " stomach",
    "4851": " baking",
    "4852": "quake",
    "4853": " nightmare",
    "4854": " insisted",
    "4855": " blowing",
    "4856": " entered",
    "4857": "Before",
    "4858": " stair",
    "4859": " palm",
    "4860": " beauty",
    "4861": " twisted",
    "4862": " bother",
    "4863": " writing",
    "4864": " scoop",
    "4865": " prunes",
    "4866": " brain",
    "4867": " ing",
    "4868": "ipment",
    "4869": " poppy",
    "4870": " hills",
    "4871": "noon",
    "4872": " afternoon",
    "4873": " equipment",
    "4874": " especially",
    "4875": "hest",
    "4876": " sir",
    "4877": " pad",
    "4878": " See",
    "4879": " ingred",
    "4880": " calls",
    "4881": " ingredient",
    "4882": " Fox",
    "4883": " earthquake",
    "4884": " ignored",
    "4885": " Snowy",
    "4886": " burned",
    "4887": " nobody",
    "4888": "mble",
    "4889": " sty",
    "4890": "apa",
    "4891": " sew",
    "4892": " tug",
    "4893": "isty",
    "4894": "xygen",
    "4895": " hearts",
    "4896": " lear",
    "4897": " learnt",
    "4898": " lemonade",
    "4899": " increase",
    "4900": "illie",
    "4901": "Jenny",
    "4902": " gaz",
    "4903": " backpack",
    "4904": " mailman",
    "4905": " whistled",
    "4906": " pedal",
    "4907": " Sk",
    "4908": "Fred",
    "4909": " shopkeeper",
    "4910": "ffic",
    "4911": " permit",
    "4912": " tremble",
    "4913": " yucky",
    "4914": "anges",
    "4915": " moves",
    "4916": " introduce",
    "4917": " lemons",
    "4918": " crash",
    "4919": " beans",
    "4920": " floated",
    "4921": "edn",
    "4922": "ednesday",
    "4923": "ittens",
    "4924": "Welcome",
    "4925": " planned",
    "4926": " strike",
    "4927": " traffic",
    "4928": " include",
    "4929": " slap",
    "4930": " racing",
    "4931": " Lucky",
    "4932": "resses",
    "4933": " wisdom",
    "4934": " pur",
    "4935": " wags",
    "4936": " Finny",
    "4937": "laimed",
    "4938": " George",
    "4939": " luck",
    "4940": " following",
    "4941": " \n",
    "4942": " price",
    "4943": "ecting",
    "4944": " mama",
    "4945": " pitch",
    "4946": " below",
    "4947": " Elly",
    "4948": " Have",
    "4949": "Le",
    "4950": " weight",
    "4951": " exclaimed",
    "4952": "house",
    "4953": " buried",
    "4954": " follows",
    "4955": " comf",
    "4956": " recognize",
    "4957": " ingredients",
    "4958": " furt",
    "4959": "tain",
    "4960": " candles",
    "4961": "eme",
    "4962": "Mimi",
    "4963": " marbles",
    "4964": "riage",
    "4965": "unday",
    "4966": "eration",
    "4967": " Alex",
    "4968": " apart",
    "4969": " Wednesday",
    "4970": " growled",
    "4971": "uct",
    "4972": " Su",
    "4973": "ores",
    "4974": " conf",
    "4975": " teaching",
    "4976": " hopes",
    "4977": " folded",
    "4978": " closely",
    "4979": " Finn",
    "4980": " Who",
    "4981": " heel",
    "4982": " Sunday",
    "4983": " encourage",
    "4984": " Paul",
    "4985": " Owl",
    "4986": " zigzag",
    "4987": " pulling",
    "4988": " digg",
    "4989": " bouncy",
    "4990": " further",
    "4991": " chewed",
    "4992": " digging",
    "4993": " winning",
    "4994": "Woof",
    "4995": "With",
    "4996": " dresses",
    "4997": " image",
    "4998": "rec",
    "4999": "cery",
    "5000": " shouting",
    "5001": " grocery",
    "5002": " twisty",
    "5003": " peanuts",
    "5004": " puzzles",
    "5005": "bbing",
    "5006": " Dog",
    "5007": "look",
    "5008": " scrat",
    "5009": " chores",
    "5010": " whisper",
    "5011": " Is",
    "5012": " spike",
    "5013": " Froggy",
    "5014": " cape",
    "5015": " snail",
    "5016": " acorns",
    "5017": " worms",
    "5018": "hood",
    "5019": " deeper",
    "5020": " urge",
    "5021": "ifi",
    "5022": " exper",
    "5023": " Whenever",
    "5024": " Tilly",
    "5025": " Squeaky",
    "5026": " Grace",
    "5027": " planted",
    "5028": " attention",
    "5029": "ecture",
    "5030": " exercise",
    "5031": " Danny",
    "5032": " cub",
    "5033": " operation",
    "5034": " underground",
    "5035": " hon",
    "5036": " agre",
    "5037": " quite",
    "5038": " creatures",
    "5039": " simp",
    "5040": "Everyone",
    "5041": " struggle",
    "5042": "oral",
    "5043": " Mittens",
    "5044": "ddy",
    "5045": " blood",
    "5046": " lecture",
    "5047": " washing",
    "5048": " hurting",
    "5049": " vanished",
    "5050": " gifts",
    "5051": " dressed",
    "5052": " invitation",
    "5053": " solved",
    "5054": " licks",
    "5055": " snuggled",
    "5056": " Sharing",
    "5057": "ippy",
    "5058": " ble",
    "5059": " marriage",
    "5060": " quietly",
    "5061": "gie",
    "5062": " warning",
    "5063": " jazz",
    "5064": " breathe",
    "5065": "reci",
    "5066": " elephants",
    "5067": " sizes",
    "5068": " dried",
    "5069": " fallen",
    "5070": " landscape",
    "5071": "ories",
    "5072": " sprink",
    "5073": " neighbour",
    "5074": " mice",
    "5075": "uesday",
    "5076": " appreci",
    "5077": " Sophie",
    "5078": " Joey",
    "5079": " \u2013",
    "5080": " eagerly",
    "5081": " sailing",
    "5082": " Coco",
    "5083": " paused",
    "5084": "ips",
    "5085": " counter",
    "5086": " Good",
    "5087": " Bounce",
    "5088": " Penny",
    "5089": " worth",
    "5090": "looking",
    "5091": " Rock",
    "5092": " oxygen",
    "5093": "Because",
    "5094": " release",
    "5095": " shined",
    "5096": "Not",
    "5097": "pted",
    "5098": " reaches",
    "5099": " balan",
    "5100": " Zara",
    "5101": "isses",
    "5102": " oh",
    "5103": " kisses",
    "5104": " style",
    "5105": " bricks",
    "5106": " plays",
    "5107": " glo",
    "5108": " Tuesday",
    "5109": " ideas",
    "5110": "sed",
    "5111": " inst",
    "5112": " wob",
    "5113": " fireworks",
    "5114": "Bella",
    "5115": "iggly",
    "5116": "ucked",
    "5117": " seeing",
    "5118": " flap",
    "5119": "ops",
    "5120": " accepted",
    "5121": "right",
    "5122": " Pip",
    "5123": "Today",
    "5124": " blink",
    "5125": "mm",
    "5126": " Ros",
    "5127": " tremb",
    "5128": "These",
    "5129": " muddy",
    "5130": " memory",
    "5131": " married",
    "5132": " tomatoes",
    "5133": " exit",
    "5134": " Annie",
    "5135": " wagging",
    "5136": " fash",
    "5137": "Remy",
    "5138": " Charlie",
    "5139": " wandered",
    "5140": "unately",
    "5141": "ipping",
    "5142": " gloves",
    "5143": " captain",
    "5144": " pillows",
    "5145": " receive",
    "5146": " resp",
    "5147": " Pinky",
    "5148": "raged",
    "5149": " during",
    "5150": " Everything",
    "5151": "etch",
    "5152": " web",
    "5153": " petals",
    "5154": " watered",
    "5155": " Eventually",
    "5156": " si",
    "5157": "ived",
    "5158": " manage",
    "5159": " pinched",
    "5160": " brings",
    "5161": " vanish",
    "5162": " cakes",
    "5163": " fashion",
    "5164": " Bluey",
    "5165": " printer",
    "5166": " destroyed",
    "5167": " treasures",
    "5168": "nce",
    "5169": " allow",
    "5170": "ups",
    "5171": " hadn",
    "5172": " worse",
    "5173": " Fifi",
    "5174": "Surpr",
    "5175": " vel",
    "5176": " hits",
    "5177": " bur",
    "5178": "xu",
    "5179": " velvet",
    "5180": " appear",
    "5181": " disagree",
    "5182": "do",
    "5183": " catching",
    "5184": " scattered",
    "5185": " Ro",
    "5186": " memories",
    "5187": " sorts",
    "5188": " Papa",
    "5189": " hers",
    "5190": " scolded",
    "5191": " signs",
    "5192": " pears",
    "5193": " oranges",
    "5194": " bones",
    "5195": " rang",
    "5196": " snapped",
    "5197": " sits",
    "5198": " seats",
    "5199": "uxu",
    "5200": " gazed",
    "5201": " raised",
    "5202": "Bl",
    "5203": " Maria",
    "5204": " zipped",
    "5205": " pies",
    "5206": " prints",
    "5207": " shot",
    "5208": " sliding",
    "5209": " God",
    "5210": " fro",
    "5211": " easier",
    "5212": "ssible",
    "5213": " skills",
    "5214": " climbs",
    "5215": " twirled",
    "5216": "ccer",
    "5217": " blankets",
    "5218": " forgotten",
    "5219": " baked",
    "5220": "ester",
    "5221": "Yum",
    "5222": "esterday",
    "5223": " difference",
    "5224": "orted",
    "5225": " luxu",
    "5226": " golden",
    "5227": "ising",
    "5228": " kitty",
    "5229": " Tw",
    "5230": " cutting",
    "5231": " season",
    "5232": "aggie",
    "5233": " nowhere",
    "5234": " crow",
    "5235": "ah",
    "5236": " soccer",
    "5237": " dared",
    "5238": " bites",
    "5239": " Henry",
    "5240": " Harry",
    "5241": "anny",
    "5242": " lung",
    "5243": " celebrated",
    "5244": "choo",
    "5245": "chie",
    "5246": " straight",
    "5247": " unlocked",
    "5248": "sters",
    "5249": " sorting",
    "5250": " collected",
    "5251": " bleed",
    "5252": "aped",
    "5253": " welcomed",
    "5254": "ding",
    "5255": " visited",
    "5256": " spoons",
    "5257": " ours",
    "5258": " stitch",
    "5259": " jogging",
    "5260": "Surprise",
    "5261": "medi",
    "5262": " emer",
    "5263": " Spark",
    "5264": "mediately",
    "5265": " isn",
    "5266": " tong",
    "5267": " trave",
    "5268": " winner",
    "5269": "umble",
    "5270": " since",
    "5271": " ruin",
    "5272": " prett",
    "5273": "Ok",
    "5274": "Moral",
    "5275": " Tony",
    "5276": " attached",
    "5277": " weeping",
    "5278": " marching",
    "5279": " luxury",
    "5280": " simple",
    "5281": " Each",
    "5282": " shouldn",
    "5283": " guessed",
    "5284": " zero",
    "5285": " created",
    "5286": " stuffed",
    "5287": " pets",
    "5288": "ction",
    "5289": " waist",
    "5290": " famil",
    "5291": " urged",
    "5292": " bowed",
    "5293": " selling",
    "5294": " floating",
    "5295": "rr",
    "5296": " Smith",
    "5297": " bye",
    "5298": " King",
    "5299": " vict",
    "5300": " kingdom",
    "5301": " olives",
    "5302": " kicking",
    "5303": " Wiggly",
    "5304": " punished",
    "5305": " Liz",
    "5306": " Baby",
    "5307": "sit",
    "5308": " toes",
    "5309": " grant",
    "5310": " muscles",
    "5311": " jewels",
    "5312": " Rosie",
    "5313": " beds",
    "5314": " melted",
    "5315": "Goodbye",
    "5316": " slice",
    "5317": " grin",
    "5318": " understanding",
    "5319": " collection",
    "5320": " tore",
    "5321": " measured",
    "5322": "aker",
    "5323": " cras",
    "5324": "omeday",
    "5325": "iers",
    "5326": " trapped",
    "5327": " lined",
    "5328": "'ve",
    "5329": " acted",
    "5330": "fortunately",
    "5331": " encouraged",
    "5332": "va",
    "5333": " Sandy",
    "5334": " received",
    "5335": " waffles",
    "5336": " Before",
    "5337": " Wally",
    "5338": " west",
    "5339": " meow",
    "5340": "ents",
    "5341": " patterns",
    "5342": "rin",
    "5343": "ino",
    "5344": " brus",
    "5345": "eath",
    "5346": " mouths",
    "5347": "kins",
    "5348": " bang",
    "5349": "ring",
    "5350": " Kate",
    "5351": "Meow",
    "5352": " peaches",
    "5353": " breeze",
    "5354": "aded",
    "5355": "une",
    "5356": " printed",
    "5357": " soldiers",
    "5358": " someday",
    "5359": " potatoes",
    "5360": " pupil",
    "5361": "umes",
    "5362": " Millie",
    "5363": " drinks",
    "5364": " shed",
    "5365": " experience",
    "5366": " Tuna",
    "5367": " presents",
    "5368": " firef",
    "5369": " Ruby",
    "5370": " surround",
    "5371": " none",
    "5372": "osed",
    "5373": " voices",
    "5374": "eep",
    "5375": " drinking",
    "5376": " Uncle",
    "5377": "ishing",
    "5378": " relaxed",
    "5379": " victory",
    "5380": "cus",
    "5381": " paints",
    "5382": " breaking",
    "5383": "eve",
    "5384": " hurried",
    "5385": "ission",
    "5386": " twink",
    "5387": " tongue",
    "5388": " costumes",
    "5389": " flat",
    "5390": " mentioned",
    "5391": " begged",
    "5392": " teasing",
    "5393": " whistling",
    "5394": " fetch",
    "5395": " permission",
    "5396": " sip",
    "5397": " disagreed",
    "5398": " pearl",
    "5399": "akes",
    "5400": " stro",
    "5401": "vest",
    "5402": " These",
    "5403": " esc",
    "5404": " appro",
    "5405": " skipping",
    "5406": " fishing",
    "5407": " May",
    "5408": "Leo",
    "5409": " highest",
    "5410": " pra",
    "5411": " watches",
    "5412": " sorted",
    "5413": " ringin",
    "5414": "ship",
    "5415": " tonight",
    "5416": " Bo",
    "5417": " opin",
    "5418": " lets",
    "5419": "icing",
    "5420": " Qu",
    "5421": " perfectly",
    "5422": " shadows",
    "5423": " immediately",
    "5424": " herbs",
    "5425": " warmth",
    "5426": " spit",
    "5427": " remained",
    "5428": "ther",
    "5429": " Its",
    "5430": "walk",
    "5431": "Bobby",
    "5432": "irring",
    "5433": "Jen",
    "5434": " sneak",
    "5435": " six",
    "5436": " lips",
    "5437": " kneeled",
    "5438": "Blue",
    "5439": " contest",
    "5440": " Che",
    "5441": "utter",
    "5442": " cartoons",
    "5443": " sidewalk",
    "5444": " colours",
    "5445": " stamps",
    "5446": " ago",
    "5447": "Ha",
    "5448": " Toto",
    "5449": " Boo",
    "5450": " Follow",
    "5451": " east",
    "5452": " headed",
    "5453": "oved",
    "5454": "\",",
    "5455": " strang",
    "5456": " ladyb",
    "5457": " fed",
    "5458": " supposed",
    "5459": " roots",
    "5460": " lick",
    "5461": " crunch",
    "5462": " mixing",
    "5463": " works",
    "5464": " decorations",
    "5465": " melting",
    "5466": " known",
    "5467": " emergen",
    "5468": "Mandy",
    "5469": " rested",
    "5470": " Ab",
    "5471": " lines",
    "5472": " Suzy",
    "5473": " lily",
    "5474": " Jul",
    "5475": " instr",
    "5476": " laid",
    "5477": " Gr",
    "5478": " succeede",
    "5479": " cones",
    "5480": " wiggle",
    "5481": "ety",
    "5482": " shock",
    "5483": " setting",
    "5484": "sing",
    "5485": " Slow",
    "5486": " studied",
    "5487": " strangers",
    "5488": " Rocky",
    "5489": "Really",
    "5490": " twigs",
    "5491": " brid",
    "5492": " theirs",
    "5493": " Dr",
    "5494": " girls",
    "5495": "boo",
    "5496": "!\",",
    "5497": " screams",
    "5498": " lands",
    "5499": " ordered",
    "5500": " stirring",
    "5501": " moments",
    "5502": " fields",
    "5503": " alright",
    "5504": " stealing",
    "5505": "Andy",
    "5506": "ded",
    "5507": " rul",
    "5508": " bravely",
    "5509": "avid",
    "5510": " Both",
    "5511": " mister",
    "5512": "!'",
    "5513": " invest",
    "5514": " scratched",
    "5515": " playtime",
    "5516": " ripped",
    "5517": " investig",
    "5518": " tucked",
    "5519": " resting",
    "5520": " burning",
    "5521": "ishes",
    "5522": " Clara",
    "5523": " Chicky",
    "5524": " bridges",
    "5525": " officer",
    "5526": "please",
    "5527": "Sammy",
    "5528": "Bird",
    "5529": "abies",
    "5530": " settled",
    "5531": " matched",
    "5532": " achie",
    "5533": " tex",
    "5534": " texture",
    "5535": "Happy",
    "5536": " waits",
    "5537": " turning",
    "5538": " Sky",
    "5539": "Peter",
    "5540": "ored",
    "5541": " trembling",
    "5542": "isten",
    "5543": " nails",
    "5544": "atie",
    "5545": " muffins",
    "5546": " Someone",
    "5547": "ids",
    "5548": " escaped",
    "5549": " James",
    "5550": " piles",
    "5551": " investigate",
    "5552": "osity",
    "5553": " broom",
    "5554": " ladybug",
    "5555": " sore",
    "5556": " Pepper",
    "5557": " appreciate",
    "5558": " admir",
    "5559": " threat",
    "5560": " babies",
    "5561": " silence",
    "5562": " sisters",
    "5563": " emergency",
    "5564": " area",
    "5565": "ides",
    "5566": " dads",
    "5567": " answers",
    "5568": " pupp",
    "5569": " keys",
    "5570": " chewing",
    "5571": " slapped",
    "5572": " wiz",
    "5573": " importance",
    "5574": "Boo",
    "5575": " served",
    "5576": " Hop",
    "5577": " safety",
    "5578": "izing",
    "5579": "Bu",
    "5580": "Would",
    "5581": " sparkle",
    "5582": " touching",
    "5583": " Later",
    "5584": " soared",
    "5585": "igail",
    "5586": " sings",
    "5587": " hen",
    "5588": "allen",
    "5589": "Ella",
    "5590": "bers",
    "5591": "antly",
    "5592": "Momo",
    "5593": " Dino",
    "5594": " keeps",
    "5595": " amazement",
    "5596": " challen",
    "5597": " twin",
    "5598": " hesit",
    "5599": " revealed",
    "5600": "anna",
    "5601": "achel",
    "5602": " item",
    "5603": " dire",
    "5604": " soaked",
    "5605": "zing",
    "5606": " writ",
    "5607": " foods",
    "5608": " rides",
    "5609": " dinosaurs",
    "5610": " recorded",
    "5611": " tickle",
    "5612": " inch",
    "5613": " Zigzag",
    "5614": " Me",
    "5615": " wizard",
    "5616": " vet",
    "5617": " trips",
    "5618": " glowed",
    "5619": " An",
    "5620": " Frog",
    "5621": "Mmm",
    "5622": " hi",
    "5623": " beamed",
    "5624": " quack",
    "5625": " curled",
    "5626": " hated",
    "5627": " wink",
    "5628": " shopping",
    "5629": " eats",
    "5630": "Eventually",
    "5631": " Bug",
    "5632": " praised",
    "5633": " wooden",
    "5634": " bringin",
    "5635": " mittens",
    "5636": " studying",
    "5637": " guy",
    "5638": " brushes",
    "5639": " spaceship",
    "5640": " gust",
    "5641": " crawling",
    "5642": " Something",
    "5643": "Cat",
    "5644": " ruler",
    "5645": " flav",
    "5646": " downstairs",
    "5647": " shooting",
    "5648": " tastes",
    "5649": " napping",
    "5650": " sprinkles",
    "5651": " marks",
    "5652": " cuddled",
    "5653": " dot",
    "5654": "hello",
    "5655": "plash",
    "5656": " fut",
    "5657": "ales",
    "5658": "aved",
    "5659": " future",
    "5660": " monsters",
    "5661": " collecting",
    "5662": " measuring",
    "5663": " Happy",
    "5664": "'.",
    "5665": " families",
    "5666": " Out",
    "5667": " First",
    "5668": " Mo",
    "5669": " thrill",
    "5670": " oat",
    "5671": "irts",
    "5672": " result",
    "5673": "Jake",
    "5674": " approached",
    "5675": " Rabbit",
    "5676": " crunchy",
    "5677": "act",
    "5678": "Un",
    "5679": " remem",
    "5680": " bleeding",
    "5681": " remembers",
    "5682": " nicer",
    "5683": " beat",
    "5684": " sneaky",
    "5685": " disturbed",
    "5686": " leader",
    "5687": " scaring",
    "5688": "Or",
    "5689": "hind",
    "5690": " peel",
    "5691": " Hope",
    "5692": " firemen",
    "5693": " neighborhood",
    "5694": " Star",
    "5695": " grey",
    "5696": " Not",
    "5697": " motion",
    "5698": " noon",
    "5699": " possible",
    "5700": "Emily",
    "5701": "Somet",
    "5702": " apologized",
    "5703": " weighed",
    "5704": "ues",
    "5705": " Did",
    "5706": " tickets",
    "5707": "Cl",
    "5708": " naps",
    "5709": " loose",
    "5710": " pride",
    "5711": " youth",
    "5712": " swims",
    "5713": " strings",
    "5714": " recognized",
    "5715": "ped",
    "5716": " siren",
    "5717": " poking",
    "5718": "fied",
    "5719": " Ho",
    "5720": "cious",
    "5721": "ha",
    "5722": "elvet",
    "5723": " tricked",
    "5724": " wonders",
    "5725": " gained",
    "5726": " wanting",
    "5727": " crashed",
    "5728": " obe",
    "5729": " seesaw",
    "5730": " worker",
    "5731": "unnies",
    "5732": "ls",
    "5733": "oming",
    "5734": " draws",
    "5735": " scooped",
    "5736": " zooming",
    "5737": " opinion",
    "5738": " yelling",
    "5739": " prepared",
    "5740": ".'",
    "5741": " grinned",
    "5742": " Slowly",
    "5743": " awe",
    "5744": " poems",
    "5745": " doggy",
    "5746": " acting",
    "5747": " Beep",
    "5748": " happiest",
    "5749": " chef",
    "5750": " sneaked",
    "5751": " respons",
    "5752": " eff",
    "5753": " Always",
    "5754": " Lizzy",
    "5755": " owned",
    "5756": " bunnies",
    "5757": " anytime",
    "5758": " struck",
    "5759": " pedals",
    "5760": "oys",
    "5761": " knelt",
    "5762": "ena",
    "5763": "Ollie",
    "5764": " secrets",
    "5765": " pause",
    "5766": " decorated",
    "5767": " horns",
    "5768": " agreement",
    "5769": " Squ",
    "5770": "ided",
    "5771": " frost",
    "5772": " tallest",
    "5773": " obey",
    "5774": "Reme",
    "5775": "riends",
    "5776": "ogo",
    "5777": " Stop",
    "5778": "Have",
    "5779": " decides",
    "5780": " Once",
    "5781": " behaved",
    "5782": " tugged",
    "5783": " sides",
    "5784": " woof",
    "5785": " slim",
    "5786": "zen",
    "5787": " goodnight",
    "5788": " keeper",
    "5789": " sparkling",
    "5790": " chirped",
    "5791": " precious",
    "5792": "mother",
    "5793": "lier",
    "5794": "ien",
    "5795": "Tr",
    "5796": " repeated",
    "5797": " claps",
    "5798": "indy",
    "5799": "affes",
    "5800": " snowballs",
    "5801": " contain",
    "5802": "ud",
    "5803": "rs",
    "5804": " Ray",
    "5805": " ourselves",
    "5806": "allow",
    "5807": " giraffes",
    "5808": " balancing",
    "5809": " kindly",
    "5810": " spending",
    "5811": " writes",
    "5812": "ays",
    "5813": "ppers",
    "5814": " Like",
    "5815": "omas",
    "5816": " prop",
    "5817": " hissed",
    "5818": "First",
    "5819": " frozen",
    "5820": " frosting",
    "5821": " effort",
    "5822": " buzzing",
    "5823": " struggled",
    "5824": " Steve",
    "5825": " admiring",
    "5826": " rele",
    "5827": "iggy",
    "5828": " sweeties",
    "5829": " Velvet",
    "5830": " slimy",
    "5831": " brushed",
    "5832": " bloomed",
    "5833": "Susie",
    "5834": " Am",
    "5835": " polished",
    "5836": " Zoe",
    "5837": "oh",
    "5838": "arth",
    "5839": "anted",
    "5840": " comfy",
    "5841": " boo",
    "5842": " staying",
    "5843": " rubbing",
    "5844": "Ducky",
    "5845": " rocking",
    "5846": " pockets",
    "5847": " thrilled",
    "5848": " beside",
    "5849": " comple",
    "5850": " Aunt",
    "5851": " Maggie",
    "5852": "Ah",
    "5853": " eight",
    "5854": "urry",
    "5855": "isdom",
    "5856": " machines",
    "5857": " earlier",
    "5858": " yesterday",
    "5859": " seems",
    "5860": " rust",
    "5861": " Keep",
    "5862": "Sp",
    "5863": " traveled",
    "5864": " folding",
    "5865": " boom",
    "5866": " cracked",
    "5867": "ities",
    "5868": " hugging",
    "5869": " radishes",
    "5870": " Stitch",
    "5871": " opening",
    "5872": " loving",
    "5873": " circus",
    "5874": " surrounded",
    "5875": " curiosity",
    "5876": " Rachel",
    "5877": " spraying",
    "5878": " demanded",
    "5879": " paintings",
    "5880": "amie",
    "5881": " Green",
    "5882": " removed",
    "5883": " gaze",
    "5884": " honk",
    "5885": " pebbles",
    "5886": " zookeeper",
    "5887": " hardly",
    "5888": " catches",
    "5889": "edding",
    "5890": " sting",
    "5891": " stripes",
    "5892": " powers",
    "5893": " loaded",
    "5894": " Pippa",
    "5895": "Sometimes",
    "5896": " splashes",
    "5897": " pots",
    "5898": " petted",
    "5899": " matching",
    "5900": " David",
    "5901": "Thanks",
    "5902": " toss",
    "5903": " stare",
    "5904": " belly",
    "5905": "Yummy",
    "5906": "ibb",
    "5907": " whatever",
    "5908": " apologize",
    "5909": " rocked",
    "5910": " comforted",
    "5911": " Bree",
    "5912": " decision",
    "5913": " ribbons",
    "5914": " Joy",
    "5915": " Birdie",
    "5916": "ern",
    "5917": " struggling",
    "5918": " expected",
    "5919": " deser",
    "5920": " steep",
    "5921": "wh",
    "5922": " protected",
    "5923": " neighbors",
    "5924": " smiley",
    "5925": " chases",
    "5926": "During",
    "5927": " granted",
    "5928": " crumb",
    "5929": " Mat",
    "5930": " purred",
    "5931": " diving",
    "5932": " sadness",
    "5933": "Whiskers",
    "5934": " organizing",
    "5935": "lowers",
    "5936": " eagle",
    "5937": " heroes",
    "5938": " dipped",
    "5939": " sunlight",
    "5940": " lied",
    "5941": " pastels",
    "5942": " Frank",
    "5943": "Ex",
    "5944": " safer",
    "5945": " roads",
    "5946": " scru",
    "5947": " argued",
    "5948": " Milly",
    "5949": " goals",
    "5950": " Water",
    "5951": " discovery",
    "5952": " Abigail",
    "5953": " villag",
    "5954": " peered",
    "5955": "Ro",
    "5956": " Bouncy",
    "5957": "use",
    "5958": "loe",
    "5959": " tim",
    "5960": " dragons",
    "5961": " buildings",
    "5962": " buckets",
    "5963": " parties",
    "5964": " beard",
    "5965": " wedding",
    "5966": "Rex",
    "5967": " flutter",
    "5968": " planets",
    "5969": " ann",
    "5970": " Robby",
    "5971": " polishing",
    "5972": " fasc",
    "5973": "ira",
    "5974": " released",
    "5975": " Chr",
    "5976": " crabs",
    "5977": " Gogo",
    "5978": " tails",
    "5979": " Watch",
    "5980": " sausages",
    "5981": " Ju",
    "5982": " argu",
    "5983": " contro",
    "5984": " bottles",
    "5985": " wiggled",
    "5986": " teased",
    "5987": "uke",
    "5988": " arguing",
    "5989": " sled",
    "5990": " dragged",
    "5991": " padd",
    "5992": " Car",
    "5993": " roaring",
    "5994": " clearing",
    "5995": " shirts",
    "5996": " movies",
    "5997": " gathering",
    "5998": " airpl",
    "5999": " wid",
    "6000": "joyed",
    "6001": " teaches",
    "6002": " spiders",
    "6003": " Reme",
    "6004": " limes",
    "6005": " Dare",
    "6006": " overjoyed",
    "6007": " actually",
    "6008": " sighs",
    "6009": " continue",
    "6010": " cuddle",
    "6011": " soaring",
    "6012": " smallest",
    "6013": " Jess",
    "6014": " drives",
    "6015": " sparkles",
    "6016": " rip",
    "6017": " situ",
    "6018": " cubes",
    "6019": " refres",
    "6020": " talent",
    "6021": " challenge",
    "6022": " Olly",
    "6023": " grandmother",
    "6024": " Splash",
    "6025": " pouring",
    "6026": "umm",
    "6027": " pretends",
    "6028": " fascin",
    "6029": " cuts",
    "6030": " quarreling",
    "6031": " peppers",
    "6032": " bank",
    "6033": " shivered",
    "6034": " mane",
    "6035": " dusty",
    "6036": "ley",
    "6037": " wondering",
    "6038": " villagers",
    "6039": " stretching",
    "6040": "njoy",
    "6041": "ib",
    "6042": " weeks",
    "6043": " wherever",
    "6044": " darker",
    "6045": "jam",
    "6046": "Tiny",
    "6047": "sses",
    "6048": " X",
    "6049": " rings",
    "6050": " onwards",
    "6051": " Katie",
    "6052": " united",
    "6053": "Achoo",
    "6054": " bead",
    "6055": " Everyday",
    "6056": " Being",
    "6057": " prettiest",
    "6058": "Johnny",
    "6059": " caut",
    "6060": " realize",
    "6061": " company",
    "6062": " penguins",
    "6063": "annah",
    "6064": "Luna",
    "6065": "Fr",
    "6066": " Spring",
    "6067": " bedtime",
    "6068": " completed",
    "6069": " Wisdom",
    "6070": " Leave",
    "6071": "\u201d.",
    "6072": " knights",
    "6073": " flags",
    "6074": " Je",
    "6075": " Because",
    "6076": " playroom",
    "6077": " Prin",
    "6078": " actions",
    "6079": " Zero",
    "6080": " learns",
    "6081": " gotten",
    "6082": " patience",
    "6083": "inda",
    "6084": "dam",
    "6085": "ini",
    "6086": " shrug",
    "6087": " kites",
    "6088": " responsible",
    "6089": " fears",
    "6090": " destination",
    "6091": " wires",
    "6092": " reply",
    "6093": " wrist",
    "6094": " dam",
    "6095": "aws",
    "6096": " packing",
    "6097": " mountains",
    "6098": " fault",
    "6099": " applauded",
    "6100": " scrubbed",
    "6101": " ma",
    "6102": " crept",
    "6103": " Ava",
    "6104": "Uh",
    "6105": " Earth",
    "6106": " satis",
    "6107": " third",
    "6108": " phot",
    "6109": " pencils",
    "6110": " wins",
    "6111": " sticking",
    "6112": " baker",
    "6113": " visiting",
    "6114": " wound",
    "6115": " uses",
    "6116": " peas",
    "6117": " reminder",
    "6118": " control",
    "6119": "ashed",
    "6120": "Grandpa",
    "6121": " joking",
    "6122": " awake",
    "6123": " instruct",
    "6124": " staring",
    "6125": " healed",
    "6126": " Put",
    "6127": " hitting",
    "6128": " Fish",
    "6129": " screaming",
    "6130": " begin",
    "6131": "Rob",
    "6132": "uckily",
    "6133": " Friends",
    "6134": " Moo",
    "6135": "icorn",
    "6136": " helmets",
    "6137": "enty",
    "6138": " unicorn",
    "6139": "ler",
    "6140": "seek",
    "6141": " towels",
    "6142": "Silly",
    "6143": " Lou",
    "6144": " chips",
    "6145": "ica",
    "6146": " creation",
    "6147": " wasted",
    "6148": "bie",
    "6149": "Mar",
    "6150": " Behind",
    "6151": "laire",
    "6152": " masks",
    "6153": " items",
    "6154": " forgi",
    "6155": " firefight",
    "6156": " outdo",
    "6157": " lollipops",
    "6158": "Watch",
    "6159": " heav",
    "6160": " guns",
    "6161": " died",
    "6162": " Hippy",
    "6163": " seas",
    "6164": " glitter",
    "6165": "uddles",
    "6166": " arrive",
    "6167": " weren",
    "6168": " stole",
    "6169": " scales",
    "6170": " perched",
    "6171": " accom",
    "6172": " logs",
    "6173": " achieve",
    "6174": "die",
    "6175": " practicing",
    "6176": " whose",
    "6177": "Stay",
    "6178": " pumpkins",
    "6179": " instructions",
    "6180": " swoop",
    "6181": " batteries",
    "6182": " candies",
    "6183": " agrees",
    "6184": " project",
    "6185": " snakes",
    "6186": " chirping",
    "6187": "Benny",
    "6188": " shelves",
    "6189": " protecting",
    "6190": " parked",
    "6191": " exact",
    "6192": " Cra",
    "6193": " patiently",
    "6194": " activ",
    "6195": " videos",
    "6196": " shoulders",
    "6197": " blows",
    "6198": "hee",
    "6199": "Fo",
    "6200": " promises",
    "6201": "go",
    "6202": " dent",
    "6203": "usan",
    "6204": "uest",
    "6205": "ners",
    "6206": "jamas",
    "6207": " examined",
    "6208": " airplane",
    "6209": "Doggy",
    "6210": " roses",
    "6211": " accompl",
    "6212": " tasks",
    "6213": "Dave",
    "6214": " Hoot",
    "6215": "Poppy",
    "6216": " Bop",
    "6217": "Bunny",
    "6218": " beads",
    "6219": " bowls",
    "6220": " crumbs",
    "6221": "zes",
    "6222": " listens",
    "6223": " Love",
    "6224": " Catty",
    "6225": " Brownie",
    "6226": "Pete",
    "6227": " Ol",
    "6228": " dolphins",
    "6229": " cough",
    "6230": " bunch",
    "6231": " guest",
    "6232": "cakes",
    "6233": " requested",
    "6234": " remote",
    "6235": " improved",
    "6236": "anta",
    "6237": " reaching",
    "6238": " brand",
    "6239": " Jan",
    "6240": "ayla",
    "6241": " alien",
    "6242": " Bye",
    "6243": "irm",
    "6244": " copy",
    "6245": " Sun",
    "6246": " cheering",
    "6247": " photos",
    "6248": " Julie",
    "6249": " Chew",
    "6250": "Bad",
    "6251": " Blink",
    "6252": "Time",
    "6253": " cans",
    "6254": " Cuddles",
    "6255": " timer",
    "6256": " By",
    "6257": " replaced",
    "6258": "athy",
    "6259": " workers",
    "6260": " stern",
    "6261": " Enjoy",
    "6262": "aster",
    "6263": " neither",
    "6264": "Mike",
    "6265": " passing",
    "6266": " misses",
    "6267": " curtains",
    "6268": " confl",
    "6269": "Chirpy",
    "6270": " rainbows",
    "6271": " rubs",
    "6272": "George",
    "6273": "uctantly",
    "6274": " rolls",
    "6275": " patted",
    "6276": "ilo",
    "6277": " pajamas",
    "6278": " outdoors",
    "6279": "esome",
    "6280": " complaini",
    "6281": "dies",
    "6282": " Squirrel",
    "6283": "Lola",
    "6284": "Run",
    "6285": " puppet",
    "6286": " Princess",
    "6287": " closes",
    "6288": " beneath",
    "6289": " lap",
    "6290": " drums",
    "6291": " tune",
    "6292": " Beth",
    "6293": " Mouse",
    "6294": " filling",
    "6295": "Miss",
    "6296": "angled",
    "6297": " refuse",
    "6298": " Sorry",
    "6299": " sweat",
    "6300": " faced",
    "6301": " seven",
    "6302": " balanced",
    "6303": " rescued",
    "6304": "neath",
    "6305": "bl",
    "6306": " quacked",
    "6307": " Abby",
    "6308": "Paul",
    "6309": "istle",
    "6310": " awesome",
    "6311": " 1",
    "6312": " mission",
    "6313": " However",
    "6314": " guys",
    "6315": " conflict",
    "6316": " cautious",
    "6317": " vent",
    "6318": " observed",
    "6319": " cause",
    "6320": " introduc",
    "6321": " Thomas",
    "6322": " pastries",
    "6323": "nie",
    "6324": "  ",
    "6325": " Our",
    "6326": " exactly",
    "6327": " doctors",
    "6328": " rule",
    "6329": " becoming",
    "6330": " policeman",
    "6331": " mes",
    "6332": "uly",
    "6333": " rockets",
    "6334": "you",
    "6335": " Yes",
    "6336": " Dot",
    "6337": " fairies",
    "6338": "lay",
    "6339": " pout",
    "6340": "An",
    "6341": " insist",
    "6342": " blooming",
    "6343": " tractor",
    "6344": " farther",
    "6345": " Sad",
    "6346": "avi",
    "6347": "Oops",
    "6348": "Great",
    "6349": " remembering",
    "6350": " included",
    "6351": " curly",
    "6352": "Zoom",
    "6353": "Fine",
    "6354": " teamwork",
    "6355": "zie",
    "6356": " fascinated",
    "6357": " wobbled",
    "6358": " slam",
    "6359": " truly",
    "6360": " helpers",
    "6361": " sights",
    "6362": " paddle",
    "6363": " stumble",
    "6364": " firm",
    "6365": "Henry",
    "6366": " Jilly",
    "6367": "acob",
    "6368": " caused",
    "6369": " prayer",
    "6370": " spong",
    "6371": " recording",
    "6372": "kelly",
    "6373": "ais",
    "6374": " traded",
    "6375": " starfish",
    "6376": " supplies",
    "6377": " thro",
    "6378": " pointy",
    "6379": " situation",
    "6380": " inviting",
    "6381": "eah",
    "6382": "gers",
    "6383": " neighbourhood",
    "6384": " everyday",
    "6385": " ornaments",
    "6386": " Ally",
    "6387": "inkle",
    "6388": " valued",
    "6389": " adding",
    "6390": "Some",
    "6391": " reluctantly",
    "6392": " dots",
    "6393": " stays",
    "6394": " tables",
    "6395": " prettier",
    "6396": " bare",
    "6397": " desert",
    "6398": " snowmen",
    "6399": " steady",
    "6400": " minerals",
    "6401": "araway",
    "6402": " thorn",
    "6403": "ody",
    "6404": " ast",
    "6405": " glasses",
    "6406": " faraway",
    "6407": " Get",
    "6408": " Foxy",
    "6409": " swooped",
    "6410": " Welcome",
    "6411": " Two",
    "6412": " Sure",
    "6413": " unf",
    "6414": " forks",
    "6415": " usually",
    "6416": " usual",
    "6417": "Polly",
    "6418": " dar",
    "6419": " Jamie",
    "6420": " winked",
    "6421": " sneezing",
    "6422": " solut",
    "6423": " loading",
    "6424": " sponge",
    "6425": " Quick",
    "6426": " insects",
    "6427": " pans",
    "6428": "Dog",
    "6429": " sobbed",
    "6430": " Santa",
    "6431": "James",
    "6432": " growling",
    "6433": "sm",
    "6434": "arter",
    "6435": " throat",
    "6436": " Chloe",
    "6437": " noses",
    "6438": " Josh",
    "6439": " Dizzy",
    "6440": " scarves",
    "6441": " confident",
    "6442": " yourselves",
    "6443": " Want",
    "6444": "agull",
    "6445": " homework",
    "6446": " superheroes",
    "6447": " Stay",
    "6448": "Joey",
    "6449": " smarter",
    "6450": " windy",
    "6451": " librarian",
    "6452": "Tina",
    "6453": " Kids",
    "6454": " gems",
    "6455": "Days",
    "6456": "ora",
    "6457": " underneath",
    "6458": " kicks",
    "6459": " knowled",
    "6460": " itchy",
    "6461": " knowledge",
    "6462": " jackets",
    "6463": "...\"",
    "6464": " Skelly",
    "6465": " For",
    "6466": " surface",
    "6467": " untie",
    "6468": " comm",
    "6469": " Duck",
    "6470": " princesses",
    "6471": "Those",
    "6472": "ido",
    "6473": "eed",
    "6474": "Hold",
    "6475": "Yeah",
    "6476": "coon",
    "6477": " squares",
    "6478": " Henny",
    "6479": " warnings",
    "6480": " giggling",
    "6481": "iar",
    "6482": " reads",
    "6483": "vin",
    "6484": "Our",
    "6485": " choo",
    "6486": "son",
    "6487": " younger",
    "6488": " clowns",
    "6489": " Mix",
    "6490": "Toby",
    "6491": " ropes",
    "6492": " biting",
    "6493": " crowd",
    "6494": " Unfortunately",
    "6495": "pite",
    "6496": "Danny",
    "6497": "True",
    "6498": " seagull",
    "6499": " paddled",
    "6500": " wears",
    "6501": " delivered",
    "6502": " Mon",
    "6503": " twirl",
    "6504": " onions",
    "6505": " buzzed",
    "6506": " complained",
    "6507": " bumpy",
    "6508": " stem",
    "6509": "Ew",
    "6510": " piggy",
    "6511": "Mrs",
    "6512": " Anne",
    "6513": " direction",
    "6514": "ouch",
    "6515": " dived",
    "6516": "Roar",
    "6517": " tangled",
    "6518": " startled",
    "6519": "ults",
    "6520": " leaning",
    "6521": "bbie",
    "6522": " Ant",
    "6523": " Jones",
    "6524": " badge",
    "6525": " Po",
    "6526": "Grace",
    "6527": " unp",
    "6528": " deal",
    "6529": "though",
    "6530": "Annie",
    "6531": " vowed",
    "6532": " napkins",
    "6533": "anes",
    "6534": " tickled",
    "6535": " risk",
    "6536": " covers",
    "6537": " pec",
    "6538": "Shh",
    "6539": " yells",
    "6540": " satisfied",
    "6541": "int",
    "6542": " knocks",
    "6543": " refreshed",
    "6544": "tuce",
    "6545": " Sc",
    "6546": "cuse",
    "6547": " cous",
    "6548": " arrows",
    "6549": "Maggie",
    "6550": " Whistle",
    "6551": "Pe",
    "6552": " wipes",
    "6553": " speaking",
    "6554": " lettuce",
    "6555": " guessing",
    "6556": "Unfortunately",
    "6557": " Quack",
    "6558": " ripe",
    "6559": " Susan",
    "6560": " hides",
    "6561": " choices",
    "6562": " Dodo",
    "6563": " Rover",
    "6564": "Buzz",
    "6565": " signed",
    "6566": " slower",
    "6567": " seeker",
    "6568": " introduced",
    "6569": " singer",
    "6570": " creating",
    "6571": " Matt",
    "6572": " froze",
    "6573": " cent",
    "6574": "uggles",
    "6575": " joked",
    "6576": " squeal",
    "6577": " toaster",
    "6578": " explorers",
    "6579": "fit",
    "6580": " avo",
    "6581": "anging",
    "6582": "Sophie",
    "6583": " praying",
    "6584": " written",
    "6585": " discovering",
    "6586": " provided",
    "6587": " Dara",
    "6588": " refle",
    "6589": " Lion",
    "6590": "Excuse",
    "6591": " mushrooms",
    "6592": " Jeff",
    "6593": " Paws",
    "6594": " paying",
    "6595": " knees",
    "6596": "ences",
    "6597": " hider",
    "6598": " wandering",
    "6599": " Ash",
    "6600": " images",
    "6601": "Charlie",
    "6602": " stung",
    "6603": " Wink",
    "6604": " magnets",
    "6605": " barely",
    "6606": " behaving",
    "6607": " tipto",
    "6608": "?\",",
    "6609": " marked",
    "6610": "brush",
    "6611": " restored",
    "6612": " Dee",
    "6613": " leading",
    "6614": "lled",
    "6615": " chuck",
    "6616": "ados",
    "6617": " nine",
    "6618": " greet",
    "6619": "Teddy",
    "6620": " gears",
    "6621": " bravery",
    "6622": " Snuggles",
    "6623": "ky",
    "6624": " competition",
    "6625": "eal",
    "6626": " outfit",
    "6627": "oline",
    "6628": " wishing",
    "6629": " properly",
    "6630": " ventured",
    "6631": "tle",
    "6632": "aa",
    "6633": " muscle",
    "6634": " dances",
    "6635": " chat",
    "6636": " salty",
    "6637": " pens",
    "6638": "amb",
    "6639": " Betsy",
    "6640": " ranger",
    "6641": " Ziggy",
    "6642": " deserve",
    "6643": " however",
    "6644": "sequ",
    "6645": " matters",
    "6646": " darkness",
    "6647": " burst",
    "6648": " Fu",
    "6649": " rainy",
    "6650": " cobwebs",
    "6651": " ruini",
    "6652": " chefs",
    "6653": " consequ",
    "6654": " blocking",
    "6655": " bak",
    "6656": "usted",
    "6657": "itely",
    "6658": "sty",
    "6659": " scur",
    "6660": " vines",
    "6661": " fab",
    "6662": "abel",
    "6663": " fabric",
    "6664": " entire",
    "6665": " basement",
    "6666": " performed",
    "6667": " least",
    "6668": " Buggy",
    "6669": "Sn",
    "6670": " scratches",
    "6671": " heavier",
    "6672": " Claire",
    "6673": " mints",
    "6674": " twirling",
    "6675": " avocados",
    "6676": "However",
    "6677": " Linda",
    "6678": "rink",
    "6679": "fl",
    "6680": " scurried",
    "6681": " losing",
    "6682": " sunflowers",
    "6683": " Jenna",
    "6684": " rainco",
    "6685": " swords",
    "6686": "Tweet",
    "6687": " click",
    "6688": "agic",
    "6689": " Laser",
    "6690": " silent",
    "6691": " jobs",
    "6692": " necklaces",
    "6693": " flames",
    "6694": " Luke",
    "6695": " relief",
    "6696": " Grumpy",
    "6697": " snat",
    "6698": " sewed",
    "6699": " rotting",
    "6700": "len",
    "6701": "Listen",
    "6702": "Follow",
    "6703": " tricky",
    "6704": "Jerry",
    "6705": " lighter",
    "6706": "ophia",
    "6707": " bows",
    "6708": " Skip",
    "6709": " exha",
    "6710": " solution",
    "6711": " consequences",
    "6712": "Alex",
    "6713": " Lena",
    "6714": " tires",
    "6715": " stain",
    "6716": "Beep",
    "6717": " unpacked",
    "6718": "Ab",
    "6719": " partic",
    "6720": "rance",
    "6721": " races",
    "6722": " pins",
    "6723": " bumps",
    "6724": " wraps",
    "6725": "aisies",
    "6726": " wow",
    "6727": " decorating",
    "6728": " backed",
    "6729": "cher",
    "6730": " dentist",
    "6731": " purr",
    "6732": " needles",
    "6733": " cautiously",
    "6734": " lifting",
    "6735": "izzie",
    "6736": " Pr",
    "6737": " accomplish",
    "6738": " triangles",
    "6739": " daisies",
    "6740": "ept",
    "6741": " hesitated",
    "6742": " annoy",
    "6743": " Those",
    "6744": " growls",
    "6745": " crackers",
    "6746": "oke",
    "6747": " stomped",
    "6748": " grabbing",
    "6749": " cott",
    "6750": " figured",
    "6751": " bodies",
    "6752": " mater",
    "6753": " buying",
    "6754": " Tree",
    "6755": " material",
    "6756": " Rolly",
    "6757": " Fido",
    "6758": " Adam",
    "6759": " swans",
    "6760": " ties",
    "6761": " gri",
    "6762": "vers",
    "6763": " grows",
    "6764": " sweets",
    "6765": " Goodbye",
    "6766": " \n ",
    "6767": " owners",
    "6768": " flavor",
    "6769": " cheeks",
    "6770": " Cathy",
    "6771": "Big",
    "6772": " suffering",
    "6773": " Jessie",
    "6774": " El",
    "6775": "vroom",
    "6776": " fact",
    "6777": " groups",
    "6778": "bly",
    "6779": " forehead",
    "6780": " lungs",
    "6781": "Harry",
    "6782": " repa",
    "6783": " interested",
    "6784": " bakery",
    "6785": " Milo",
    "6786": " freed",
    "6787": "Lilly",
    "6788": "itches",
    "6789": " Nothing",
    "6790": " chuckled",
    "6791": "For",
    "6792": " swept",
    "6793": " conn",
    "6794": "?'",
    "6795": " thud",
    "6796": " exhausted",
    "6797": "Tw",
    "6798": " twinkling",
    "6799": " tapped",
    "6800": "Ru",
    "6801": " nect",
    "6802": "rosty",
    "6803": " nectar",
    "6804": "elle",
    "6805": " feast",
    "6806": " darling",
    "6807": "indr",
    "6808": " Mad",
    "6809": " worries",
    "6810": " uns",
    "6811": " tunnels",
    "6812": " fuzzy",
    "6813": " repaired",
    "6814": " reason",
    "6815": " Trust",
    "6816": " Copper",
    "6817": " Ball",
    "6818": " activities",
    "6819": "lets",
    "6820": " pecked",
    "6821": " Hannah",
    "6822": " entrance",
    "6823": " Try",
    "6824": " raindr",
    "6825": " meals",
    "6826": " Listen",
    "6827": " particular",
    "6828": " completely",
    "6829": " mailed",
    "6830": "ctions",
    "6831": " nests",
    "6832": " waiter",
    "6833": " cuddly",
    "6834": " sense",
    "6835": " Nana",
    "6836": " colored",
    "6837": "arky",
    "6838": " leap",
    "6839": "step",
    "6840": "band",
    "6841": " plenty",
    "6842": " peeking",
    "6843": " slammed",
    "6844": " Cara",
    "6845": "no",
    "6846": " players",
    "6847": " month",
    "6848": " budge",
    "6849": " Birthday",
    "6850": " Q",
    "6851": " scra",
    "6852": " forgets",
    "6853": " den",
    "6854": " handful",
    "6855": " Oliver",
    "6856": " mer",
    "6857": "ossible",
    "6858": " genie",
    "6859": " Christ",
    "6860": " stool",
    "6861": "iggie",
    "6862": " talks",
    "6863": " Pup",
    "6864": " Suzie",
    "6865": " passports",
    "6866": " feeding",
    "6867": " films",
    "6868": " baths",
    "6869": " impossible",
    "6870": " determination",
    "6871": "May",
    "6872": " printing",
    "6873": "boat",
    "6874": " designed",
    "6875": " buses",
    "6876": " opp",
    "6877": "ueen",
    "6878": "lephant",
    "6879": " suitcase",
    "6880": " bars",
    "6881": " counts",
    "6882": " stolen",
    "6883": " spreading",
    "6884": " spikes",
    "6885": " Snap",
    "6886": " wiping",
    "6887": " steer",
    "6888": " lamb",
    "6889": " Rain",
    "6890": " honked",
    "6891": "etty",
    "6892": "nies",
    "6893": "Whee",
    "6894": " cowb",
    "6895": " separated",
    "6896": "blings",
    "6897": " siblings",
    "6898": " hops",
    "6899": " chop",
    "6900": " sewing",
    "6901": " fires",
    "6902": " Twinkle",
    "6903": " fever",
    "6904": " twinkle",
    "6905": " ty",
    "6906": " camping",
    "6907": " Mira",
    "6908": " lower",
    "6909": " changing",
    "6910": "yes",
    "6911": "retch",
    "6912": " behavi",
    "6913": " Bloom",
    "6914": "mas",
    "6915": " liqu",
    "6916": " celebration",
    "6917": "but",
    "6918": " squealed",
    "6919": " dollhouse",
    "6920": "Sunny",
    "6921": " backward",
    "6922": " age",
    "6923": " snatched",
    "6924": " cash",
    "6925": "ho",
    "6926": " twice",
    "6927": "lee",
    "6928": " sway",
    "6929": "itched",
    "6930": " celebrating",
    "6931": " Peanut",
    "6932": " shrinking",
    "6933": " ache",
    "6934": "weed",
    "6935": " kings",
    "6936": "rious",
    "6937": " shops",
    "6938": " kittens",
    "6939": "cope",
    "6940": "Rose",
    "6941": " Jessica",
    "6942": " Jacob",
    "6943": " Gina",
    "6944": "aura",
    "6945": " hus",
    "6946": " touches",
    "6947": "airy",
    "6948": " pancakes",
    "6949": " avoid",
    "6950": " spat",
    "6951": " Frosty",
    "6952": "rig",
    "6953": "hog",
    "6954": " Nina",
    "6955": " paths",
    "6956": "ives",
    "6957": "cky",
    "6958": " Hold",
    "6959": " rotten",
    "6960": " calmed",
    "6961": "Sandy",
    "6962": " seaweed",
    "6963": " dropping",
    "6964": " Jon",
    "6965": " Mel",
    "6966": "iles",
    "6967": "Pipp",
    "6968": " twisting",
    "6969": " stroked",
    "6970": " untied",
    "6971": "llen",
    "6972": " playhouse",
    "6973": "ne",
    "6974": "Millie",
    "6975": " students",
    "6976": " puppies",
    "6977": "cl",
    "6978": " Sof",
    "6979": "hi",
    "6980": " screws",
    "6981": " astron",
    "6982": " Re",
    "6983": " somebody",
    "6984": "igning",
    "6985": " liquid",
    "6986": "ammy",
    "6987": " wakes",
    "6988": " squish",
    "6989": " Woof",
    "6990": " bracelets",
    "6991": " astronaut",
    "6992": "immer",
    "6993": "aren",
    "6994": " thrown",
    "6995": " loops",
    "6996": " Other",
    "6997": "Luckily",
    "6998": " wrapping",
    "6999": " plain",
    "7000": " tramp",
    "7001": " planning",
    "7002": " skunk",
    "7003": " aimed",
    "7004": " pennies",
    "7005": " shoo",
    "7006": " lifts",
    "7007": " dancers",
    "7008": " sparks",
    "7009": " firefly",
    "7010": "pen",
    "7011": "Dan",
    "7012": " poster",
    "7013": "yan",
    "7014": "endy",
    "7015": " cust",
    "7016": " Christmas",
    "7017": " rewarded",
    "7018": " objects",
    "7019": " directions",
    "7020": "using",
    "7021": "ingo",
    "7022": " reflection",
    "7023": " husband",
    "7024": "\u2014",
    "7025": "Take",
    "7026": "river",
    "7027": " clues",
    "7028": "uppy",
    "7029": " leads",
    "7030": " increased",
    "7031": " blocked",
    "7032": " rising",
    "7033": " dod",
    "7034": " cousin",
    "7035": " Yesterday",
    "7036": " Without",
    "7037": " forgetting",
    "7038": "rigued",
    "7039": " custom",
    "7040": "Kate",
    "7041": "ude",
    "7042": " trampoline",
    "7043": " beginning",
    "7044": " storekeeper",
    "7045": " pouted",
    "7046": " zebras",
    "7047": " hedgehog",
    "7048": " aff",
    "7049": " \u2018",
    "7050": " borrowed",
    "7051": " Rollie",
    "7052": " snowfl",
    "7053": " countryside",
    "7054": "Jump",
    "7055": " mesmer",
    "7056": " Jay",
    "7057": " vehicles",
    "7058": " instrum",
    "7059": " Mic",
    "7060": " Kayla",
    "7061": " Up",
    "7062": " frowning",
    "7063": "ivity",
    "7064": "Pat",
    "7065": "Under",
    "7066": " marker",
    "7067": "yond",
    "7068": " presses",
    "7069": " beyond",
    "7070": " Queen",
    "7071": " damage",
    "7072": " Only",
    "7073": "iece",
    "7074": "ivery",
    "7075": " fart",
    "7076": " Tara",
    "7077": " Biggie",
    "7078": "jo",
    "7079": " health",
    "7080": " whispers",
    "7081": " swimsuit",
    "7082": " slips",
    "7083": " nibb",
    "7084": " Julia",
    "7085": "armer",
    "7086": " warmer",
    "7087": " flapping",
    "7088": " tiptoed",
    "7089": " regretted",
    "7090": "itted",
    "7091": "Zip",
    "7092": " laying",
    "7093": " Robo",
    "7094": "ades",
    "7095": " yelp",
    "7096": " Fire",
    "7097": " rains",
    "7098": " glued",
    "7099": " everybody",
    "7100": " creations",
    "7101": " hearing",
    "7102": " swir",
    "7103": " colder",
    "7104": "iversity",
    "7105": "ael",
    "7106": " shaped",
    "7107": " Elephant",
    "7108": " streets",
    "7109": " fins",
    "7110": " rusty",
    "7111": " cushions",
    "7112": "Out",
    "7113": " san",
    "7114": " farthest",
    "7115": " creativity",
    "7116": " Mikey",
    "7117": "ans",
    "7118": " sale",
    "7119": "Always",
    "7120": "Co",
    "7121": " strongest",
    "7122": "ibbit",
    "7123": " fits",
    "7124": " Sparky",
    "7125": " bells",
    "7126": " dollars",
    "7127": " Larry",
    "7128": "eese",
    "7129": " earn",
    "7130": "iam",
    "7131": "angle",
    "7132": " lending",
    "7133": " Moon",
    "7134": " Chirp",
    "7135": " cashier",
    "7136": "Milly",
    "7137": " including",
    "7138": " sniffs",
    "7139": " sank",
    "7140": " raincoat",
    "7141": " Rich",
    "7142": " trembled",
    "7143": " stopping",
    "7144": " source",
    "7145": "iti",
    "7146": "imon",
    "7147": " Missy",
    "7148": " wobbly",
    "7149": " indeed",
    "7150": "ters",
    "7151": " guests",
    "7152": " single",
    "7153": " recommended",
    "7154": " wee",
    "7155": " spells",
    "7156": " accomplishment",
    "7157": " belts",
    "7158": " surprising",
    "7159": " ends",
    "7160": " hopeful",
    "7161": " seasons",
    "7162": " Take",
    "7163": " Snowman",
    "7164": " Els",
    "7165": "Bear",
    "7166": " plans",
    "7167": "ichael",
    "7168": " encourag",
    "7169": " supported",
    "7170": "stick",
    "7171": "illed",
    "7172": " suffered",
    "7173": " artist",
    "7174": " performance",
    "7175": "Nina",
    "7176": " slowed",
    "7177": "eet",
    "7178": " gross",
    "7179": " flavors",
    "7180": "iding",
    "7181": "ertain",
    "7182": " spins",
    "7183": "cho",
    "7184": "Quack",
    "7185": " labels",
    "7186": " raindrops",
    "7187": " delivery",
    "7188": "uing",
    "7189": "arac",
    "7190": " raccoon",
    "7191": " forgiving",
    "7192": "obody",
    "7193": " Woo",
    "7194": " pours",
    "7195": "the",
    "7196": "ility",
    "7197": " vanilla",
    "7198": " turtles",
    "7199": " stands",
    "7200": "Bill",
    "7201": "uess",
    "7202": " recipe",
    "7203": " beam",
    "7204": " tying",
    "7205": " Sw",
    "7206": " geese",
    "7207": " willing",
    "7208": " robber",
    "7209": " drawn",
    "7210": "Vroom",
    "7211": " wept",
    "7212": " Bones",
    "7213": " imagini",
    "7214": " charac",
    "7215": " pops",
    "7216": " corners",
    "7217": " Sophia",
    "7218": "elia",
    "7219": " queens",
    "7220": " sailboat",
    "7221": " grip",
    "7222": " die",
    "7223": " drivers",
    "7224": "itude",
    "7225": " moo",
    "7226": " hallway",
    "7227": " seconds",
    "7228": " Fuzzy",
    "7229": "Mine",
    "7230": " preparing",
    "7231": " widened",
    "7232": " adult",
    "7233": " Spirit",
    "7234": " grocer",
    "7235": " coop",
    "7236": " talented",
    "7237": " Pam",
    "7238": " Beaky",
    "7239": "lling",
    "7240": " Izzy",
    "7241": "ummies",
    "7242": " sailors",
    "7243": " softer",
    "7244": " aside",
    "7245": " watering",
    "7246": " sending",
    "7247": " knots",
    "7248": " unsure",
    "7249": " tipped",
    "7250": "Lulu",
    "7251": " treehouse",
    "7252": " horiz",
    "7253": " Lizzie",
    "7254": " notes",
    "7255": " echo",
    "7256": "igers",
    "7257": " achieved",
    "7258": " horizon",
    "7259": " squeak",
    "7260": " delivering",
    "7261": " pleasure",
    "7262": " hotter",
    "7263": " Stella",
    "7264": "Clara",
    "7265": " pupils",
    "7266": " burrow",
    "7267": " angels",
    "7268": " curiously",
    "7269": "Ellie",
    "7270": " yum",
    "7271": " blinking",
    "7272": " June",
    "7273": " tweet",
    "7274": " symbols",
    "7275": " det",
    "7276": " Stretch",
    "7277": "wk",
    "7278": " passen",
    "7279": " Rudy",
    "7280": " Cindy",
    "7281": " tummies",
    "7282": " tiss",
    "7283": " pigeons",
    "7284": " figures",
    "7285": "umbling",
    "7286": "oey",
    "7287": " bandages",
    "7288": " Robert",
    "7289": " coup",
    "7290": " Doctor",
    "7291": " robots",
    "7292": "alph",
    "7293": " tossed",
    "7294": " hour",
    "7295": " backwards",
    "7296": " roars",
    "7297": "Baby",
    "7298": " merma",
    "7299": "uzz",
    "7300": " rather",
    "7301": "atur",
    "7302": "Maria",
    "7303": "cited",
    "7304": " Play",
    "7305": " Crab",
    "7306": "Moo",
    "7307": "ighting",
    "7308": "Dolly",
    "7309": " groceries",
    "7310": " zipping",
    "7311": "Put",
    "7312": "Very",
    "7313": " unw",
    "7314": "prin",
    "7315": " among",
    "7316": " blown",
    "7317": " icing",
    "7318": "!\u201d.",
    "7319": " rumble",
    "7320": " afterwards",
    "7321": "ipper",
    "7322": " screwd",
    "7323": "ushing",
    "7324": " sped",
    "7325": " prove",
    "7326": " glee",
    "7327": " Titi",
    "7328": " Tia",
    "7329": " dip",
    "7330": " overcome",
    "7331": "Ruby",
    "7332": "Quick",
    "7333": " surfboard",
    "7334": " shovels",
    "7335": " slices",
    "7336": " Toot",
    "7337": " merry",
    "7338": " wobble",
    "7339": " mate",
    "7340": " Turt",
    "7341": " Abbie",
    "7342": " heading",
    "7343": " disturbing",
    "7344": " swall",
    "7345": " reversed",
    "7346": " firefighters",
    "7347": "Jul",
    "7348": " swallowed",
    "7349": " chip",
    "7350": "eds",
    "7351": " scored",
    "7352": " flipped",
    "7353": " Jump",
    "7354": " squeezing",
    "7355": "usty",
    "7356": "Frank",
    "7357": "aty",
    "7358": "Su",
    "7359": " waking",
    "7360": " intrigued",
    "7361": "Sad",
    "7362": "Like",
    "7363": " maker",
    "7364": " Barky",
    "7365": "awn",
    "7366": "Betty",
    "7367": " puff",
    "7368": " hawk",
    "7369": " encouraging",
    "7370": " aud",
    "7371": " Ex",
    "7372": "osen",
    "7373": "onies",
    "7374": " chosen",
    "7375": " Ron",
    "7376": "hew",
    "7377": " Farmer",
    "7378": " Ang",
    "7379": " couple",
    "7380": " designs",
    "7381": " slipping",
    "7382": " screwdriver",
    "7383": " squishy",
    "7384": " Emmy",
    "7385": " gardener",
    "7386": " center",
    "7387": " rivers",
    "7388": " respond",
    "7389": " markers",
    "7390": "iley",
    "7391": " tigers",
    "7392": " jars",
    "7393": "pecting",
    "7394": " frowns",
    "7395": "bird",
    "7396": " fluttered",
    "7397": " Sadly",
    "7398": " Kit",
    "7399": "Ribbit",
    "7400": " firefighter",
    "7401": " Sl",
    "7402": " Ryan",
    "7403": " suits",
    "7404": " secure",
    "7405": " sprinkled",
    "7406": " creamy",
    "7407": "ashes",
    "7408": " sharks",
    "7409": " ignoring",
    "7410": " bru",
    "7411": " giggles",
    "7412": " tissue",
    "7413": " tighter",
    "7414": " firmly",
    "7415": "ounce",
    "7416": " Laura",
    "7417": "fly",
    "7418": " shown",
    "7419": " familiar",
    "7420": " thorns",
    "7421": "Spike",
    "7422": " Wo",
    "7423": " drawers",
    "7424": "child",
    "7425": " Zee",
    "7426": " express",
    "7427": "Car",
    "7428": "ments",
    "7429": " def",
    "7430": " daring",
    "7431": " crossing",
    "7432": " audience",
    "7433": " performing",
    "7434": " coloured",
    "7435": " cloudy",
    "7436": " cor",
    "7437": " ais",
    "7438": " Nick",
    "7439": "ae",
    "7440": "rat",
    "7441": " pedaled",
    "7442": "Get",
    "7443": " mixture",
    "7444": " til",
    "7445": " gracefully",
    "7446": "ggy",
    "7447": " haircuts",
    "7448": " yielded",
    "7449": " ponies",
    "7450": " disob",
    "7451": " crowns",
    "7452": " bits",
    "7453": " todd",
    "7454": " Sleep",
    "7455": " nervously",
    "7456": " hangers",
    "7457": "bbled",
    "7458": " Patch",
    "7459": "Zoomy",
    "7460": " pays",
    "7461": " 2",
    "7462": " peck",
    "7463": " stroke",
    "7464": " ev",
    "7465": "fall",
    "7466": "Bang",
    "7467": "een",
    "7468": " respected",
    "7469": " napped",
    "7470": "aven",
    "7471": " minded",
    "7472": "ddie",
    "7473": "Bessie",
    "7474": "ably",
    "7475": "Boys",
    "7476": " tested",
    "7477": "ading",
    "7478": "parent",
    "7479": " Chris",
    "7480": "Kim",
    "7481": " University",
    "7482": " Near",
    "7483": " beeh",
    "7484": " Turtle",
    "7485": " surfing",
    "7486": " neighbours",
    "7487": "arrow",
    "7488": "vered",
    "7489": " shady",
    "7490": "iona",
    "7491": "arlings",
    "7492": " magician",
    "7493": " enthusiasm",
    "7494": " darlings",
    "7495": " wisely",
    "7496": " stitches",
    "7497": " sails",
    "7498": "kend",
    "7499": "Dear",
    "7500": " weekend",
    "7501": " thoughts",
    "7502": "Freddy",
    "7503": " Tweetie",
    "7504": " reminds",
    "7505": " temper",
    "7506": "oring",
    "7507": "tha",
    "7508": "antha",
    "7509": " surroundings",
    "7510": " spits",
    "7511": " fleas",
    "7512": " teams",
    "7513": " lessons",
    "7514": " fills",
    "7515": " flip",
    "7516": " Along",
    "7517": " paintbrush",
    "7518": " melons",
    "7519": " mermaid",
    "7520": "oni",
    "7521": "Katie",
    "7522": " grandchild",
    "7523": " hoops",
    "7524": " explo",
    "7525": " elbow",
    "7526": " sports",
    "7527": "Guess",
    "7528": " lies",
    "7529": " Fighting",
    "7530": "rac",
    "7531": " panicked",
    "7532": " cleaner",
    "7533": " amount",
    "7534": "cused",
    "7535": " longest",
    "7536": " scooters",
    "7537": " lent",
    "7538": "ita",
    "7539": "immering",
    "7540": " sill",
    "7541": " beloved",
    "7542": "Pippin",
    "7543": " beehive",
    "7544": "Alright",
    "7545": "ongrat",
    "7546": "oga",
    "7547": "lle",
    "7548": "ongratul",
    "7549": " oysters",
    "7550": " grandparent",
    "7551": " forgiven",
    "7552": " magazines",
    "7553": " arr",
    "7554": " Wise",
    "7555": " elf",
    "7556": " repeating",
    "7557": " discussed",
    "7558": " sweetest",
    "7559": " Thanks",
    "7560": "Keep",
    "7561": " wadd",
    "7562": " Maya",
    "7563": " reass",
    "7564": " lace",
    "7565": " Granny",
    "7566": " nightmares",
    "7567": " tubes",
    "7568": " Willy",
    "7569": " understands",
    "7570": " spoonful",
    "7571": " nood",
    "7572": " bathing",
    "7573": " Zoey",
    "7574": "asty",
    "7575": "Am",
    "7576": " sweep",
    "7577": " manners",
    "7578": "crow",
    "7579": "Uncle",
    "7580": " wrink",
    "7581": " sprang",
    "7582": " nur",
    "7583": " bully",
    "7584": " Holly",
    "7585": " guide",
    "7586": " Yet",
    "7587": "onna",
    "7588": "ancy",
    "7589": " crew",
    "7590": "romise",
    "7591": "Jazz",
    "7592": " breathed",
    "7593": "while",
    "7594": "steps",
    "7595": "ilda",
    "7596": "ently",
    "7597": " Bally",
    "7598": " bulbs",
    "7599": " neare",
    "7600": " grassy",
    "7601": " wiggly",
    "7602": " testing",
    "7603": " spies",
    "7604": " coug",
    "7605": " solving",
    "7606": " sheets",
    "7607": " Roo",
    "7608": " footsteps",
    "7609": "ntil",
    "7610": "Afterwards",
    "7611": " speeding",
    "7612": " focused",
    "7613": "ounced",
    "7614": "cept",
    "7615": "?!\"",
    "7616": " mesmerized",
    "7617": " camel",
    "7618": " braver",
    "7619": " hesitant",
    "7620": " Sparkle",
    "7621": " licking",
    "7622": " rushing",
    "7623": " Well",
    "7624": " joini",
    "7625": " Puppy",
    "7626": " polar",
    "7627": " greeted",
    "7628": " Martha",
    "7629": "espite",
    "7630": "--",
    "7631": " Bubb",
    "7632": "Which",
    "7633": "Kiki",
    "7634": " worn",
    "7635": " materials",
    "7636": " changes",
    "7637": " Nobody",
    "7638": "undred",
    "7639": " stored",
    "7640": " bicycles",
    "7641": " mast",
    "7642": " anger",
    "7643": "Leave",
    "7644": " peacefully",
    "7645": " ships",
    "7646": " spice",
    "7647": " terrified",
    "7648": " nuzz",
    "7649": " gonna",
    "7650": " Show",
    "7651": " politely",
    "7652": "Snow",
    "7653": " spills",
    "7654": " scarecrow",
    "7655": " knives",
    "7656": " evil",
    "7657": " Mixy",
    "7658": "ppies",
    "7659": " burying",
    "7660": "ca",
    "7661": " healing",
    "7662": " aren",
    "7663": " donkey",
    "7664": " aeroplanes",
    "7665": "freeze",
    "7666": "Even",
    "7667": " seals",
    "7668": " scattering",
    "7669": " miles",
    "7670": " Chewy",
    "7671": "amboo",
    "7672": " dump",
    "7673": " worrying",
    "7674": "Bee",
    "7675": "zoom",
    "7676": "beep",
    "7677": "David",
    "7678": " Lenny",
    "7679": " puzzled",
    "7680": " stacked",
    "7681": " Kip",
    "7682": "Penny",
    "7683": " Nice",
    "7684": " loses",
    "7685": "dding",
    "7686": " travelled",
    "7687": " baskets",
    "7688": " Win",
    "7689": " Okay",
    "7690": " gazing",
    "7691": " blast",
    "7692": "ipes",
    "7693": " Tess",
    "7694": "Hurry",
    "7695": " temperature",
    "7696": " und",
    "7697": " tasting",
    "7698": " dripping",
    "7699": " clue",
    "7700": " believing",
    "7701": " pinching",
    "7702": "erm",
    "7703": " soaking",
    "7704": " rats",
    "7705": " 10",
    "7706": "isc",
    "7707": " sandy",
    "7708": "rect",
    "7709": " Isn",
    "7710": " Simon",
    "7711": "rey",
    "7712": "anwhile",
    "7713": " Abi",
    "7714": "Binky",
    "7715": " punishment",
    "7716": " banged",
    "7717": " humans",
    "7718": " crashing",
    "7719": " force",
    "7720": " Ana",
    "7721": " hundred",
    "7722": " gest",
    "7723": " Lia",
    "7724": " swimmer",
    "7725": " Chess",
    "7726": " snowflakes",
    "7727": " relaxing",
    "7728": " resisted",
    "7729": " beeped",
    "7730": " Fairy",
    "7731": " quarreled",
    "7732": "form",
    "7733": "elie",
    "7734": " ramp",
    "7735": " Wendy",
    "7736": " joins",
    "7737": "abby",
    "7738": " backpacks",
    "7739": " Ph",
    "7740": "years",
    "7741": " dressing",
    "7742": " delayed",
    "7743": " toddler",
    "7744": " Luckily",
    "7745": " flight",
    "7746": " covering",
    "7747": " Te",
    "7748": "orter",
    "7749": "Two",
    "7750": "Open",
    "7751": "By",
    "7752": " encouragement",
    "7753": " benches",
    "7754": " toward",
    "7755": " scraped",
    "7756": " purpose",
    "7757": " focus",
    "7758": " Judy",
    "7759": "Bow",
    "7760": " correct",
    "7761": "'.\"",
    "7762": " lipstick",
    "7763": " bamboo",
    "7764": "Spe",
    "7765": " twinkled",
    "7766": " potion",
    "7767": " permitted",
    "7768": " months",
    "7769": " Cow",
    "7770": " languages",
    "7771": " orders",
    "7772": " freedom",
    "7773": "Tony",
    "7774": " risks",
    "7775": " poppies",
    "7776": " master",
    "7777": "shm",
    "7778": " noodles",
    "7779": " faded",
    "7780": " wounds",
    "7781": "shmallow",
    "7782": "rier",
    "7783": "Kids",
    "7784": "isions",
    "7785": " Jojo",
    "7786": " creams",
    "7787": " birdhouse",
    "7788": " cells",
    "7789": " annoyed",
    "7790": " Herb",
    "7791": "opes",
    "7792": " sniffing",
    "7793": " cheers",
    "7794": " adults",
    "7795": "Birdy",
    "7796": " unwra",
    "7797": "ecca",
    "7798": "Buzzy",
    "7799": " puck",
    "7800": " opinions",
    "7801": " floats",
    "7802": "andas",
    "7803": "Instead",
    "7804": " flown",
    "7805": "Arr",
    "7806": " sneezes",
    "7807": " scen",
    "7808": " handsome",
    "7809": " nodding",
    "7810": " Mint",
    "7811": " smelling",
    "7812": " burnt",
    "7813": " 5",
    "7814": " drifted",
    "7815": "bage",
    "7816": " within",
    "7817": "ider",
    "7818": " scient",
    "7819": " height",
    "7820": " damaged",
    "7821": " bothering",
    "7822": " tearing",
    "7823": " slither",
    "7824": " pleaded",
    "7825": " instruments",
    "7826": " ease",
    "7827": " Ali",
    "7828": "da",
    "7829": "Back",
    "7830": " scientist",
    "7831": " Marie",
    "7832": "Mira",
    "7833": "Goodnight",
    "7834": " pound",
    "7835": " seller",
    "7836": " handing",
    "7837": " germ",
    "7838": " Say",
    "7839": " wasting",
    "7840": " files",
    "7841": " results",
    "7842": " dreamt",
    "7843": " Mabel",
    "7844": "bell",
    "7845": " explains",
    "7846": " destroying",
    "7847": " brushing",
    "7848": "ousy",
    "7849": " hiss",
    "7850": " characters",
    "7851": " Razor",
    "7852": " Cr",
    "7853": "Carl",
    "7854": " certain",
    "7855": " Ste",
    "7856": "Pandy",
    "7857": "Behind",
    "7858": " sweaty",
    "7859": " Hug",
    "7860": "unched",
    "7861": " business",
    "7862": " Robbie",
    "7863": " talents",
    "7864": " onward",
    "7865": "Try",
    "7866": " engines",
    "7867": " bravest",
    "7868": "ition",
    "7869": " sternly",
    "7870": " Pen",
    "7871": " Janie",
    "7872": "prints",
    "7873": " postman",
    "7874": " mosquitoes",
    "7875": " minds",
    "7876": "under",
    "7877": "cake",
    "7878": " tuck",
    "7879": " scares",
    "7880": "urious",
    "7881": " stomp",
    "7882": " apologised",
    "7883": "uel",
    "7884": " manag",
    "7885": " snuck",
    "7886": " bitten",
    "7887": "attered",
    "7888": " tilted",
    "7889": " switched",
    "7890": " reminding",
    "7891": " decisions",
    "7892": " singers",
    "7893": " desper",
    "7894": " behavior",
    "7895": " Poor",
    "7896": "ashing",
    "7897": " Judge",
    "7898": "bbers",
    "7899": "inny",
    "7900": " squeaked",
    "7901": " peeled",
    "7902": " Everybody",
    "7903": " yumm",
    "7904": " purrs",
    "7905": " Bra",
    "7906": " treated",
    "7907": " smashed",
    "7908": " rustling",
    "7909": " displayed",
    "7910": " Until",
    "7911": " neatly",
    "7912": " matey",
    "7913": " planting",
    "7914": " Bess",
    "7915": " marshmallow",
    "7916": " insp",
    "7917": " yelped",
    "7918": " sy",
    "7919": " grandparents",
    "7920": " cracks",
    "7921": " bellies",
    "7922": "aver",
    "7923": " shines",
    "7924": " scamp",
    "7925": " Navy",
    "7926": " hoo",
    "7927": " failed",
    "7928": " coloring",
    "7929": " Yoga",
    "7930": "line",
    "7931": " zooms",
    "7932": " Make",
    "7933": "rup",
    "7934": " nasty",
    "7935": " breathing",
    "7936": " combed",
    "7937": " pandas",
    "7938": " despite",
    "7939": " address",
    "7940": "ighing",
    "7941": " waterfall",
    "7942": "uffin",
    "7943": "omp",
    "7944": "cc",
    "7945": " Loop",
    "7946": " Angel",
    "7947": "Tilly",
    "7948": " wider",
    "7949": " robbers",
    "7950": " antic",
    "7951": "Play",
    "7952": "Abigail",
    "7953": " sweaters",
    "7954": " echoed",
    "7955": " doorway",
    "7956": " Todd",
    "7957": "evin",
    "7958": " edges",
    "7959": " inj",
    "7960": " Shadow",
    "7961": "Aunt",
    "7962": " gap",
    "7963": " disobey",
    "7964": " Blinky",
    "7965": "wise",
    "7966": "Liz",
    "7967": " Michael",
    "7968": " tar",
    "7969": " Flick",
    "7970": "oscope",
    "7971": "orking",
    "7972": "Wake",
    "7973": " taped",
    "7974": " magnif",
    "7975": "ulp",
    "7976": "father",
    "7977": " scolds",
    "7978": " flaps",
    "7979": " action",
    "7980": " crawls",
    "7981": " Mindy",
    "7982": "Ros",
    "7983": " swap",
    "7984": " gobbled",
    "7985": " backs",
    "7986": " Gary",
    "7987": " warri",
    "7988": " Fishy",
    "7989": " Eddie",
    "7990": "Slow",
    "7991": " steth",
    "7992": " sever",
    "7993": " shinier",
    "7994": " probably",
    "7995": " newspapers",
    "7996": " several",
    "7997": " occ",
    "7998": "Rock",
    "7999": "Lena",
    "8000": " encount",
    "8001": " Meg",
    "8002": " serving",
    "8003": " quieter",
    "8004": " plucked",
    "8005": " connected",
    "8006": "tock",
    "8007": " Share",
    "8008": " ouch",
    "8009": "igger",
    "8010": "Ted",
    "8011": "Adam",
    "8012": " gesture",
    "8013": "Too",
    "8014": "Fl",
    "8015": " student",
    "8016": " plot",
    "8017": " doorbell",
    "8018": " squaw",
    "8019": " cares",
    "8020": "fire",
    "8021": " rescuing",
    "8022": " grandson",
    "8023": " Se",
    "8024": " spy",
    "8025": " simply",
    "8026": " rows",
    "8027": " goo",
    "8028": "iel",
    "8029": " whistles",
    "8030": "mies",
    "8031": "vant",
    "8032": "Shrink",
    "8033": "Magic",
    "8034": " snaps",
    "8035": " shorter",
    "8036": " astronauts",
    "8037": " unpacking",
    "8038": " cottage",
    "8039": " Time",
    "8040": " swo",
    "8041": " accidents",
    "8042": "ibi",
    "8043": " swollen",
    "8044": " mood",
    "8045": " Nut",
    "8046": "Steve",
    "8047": "abelle",
    "8048": " Zippy",
    "8049": " Mousy",
    "8050": "anie",
    "8051": "Zara",
    "8052": " bothered",
    "8053": "Hannah",
    "8054": " stethoscope",
    "8055": "found",
    "8056": " trusting",
    "8057": " causing",
    "8058": "Mat",
    "8059": "Mad",
    "8060": "Brr",
    "8061": " leapt",
    "8062": " dresser",
    "8063": "aint",
    "8064": " sou",
    "8065": " proper",
    "8066": " pills",
    "8067": "retty",
    "8068": " throughout",
    "8069": "Olive",
    "8070": " runner",
    "8071": " prayers",
    "8072": " Dina",
    "8073": " joyful",
    "8074": "Thomas",
    "8075": "mates",
    "8076": " locks",
    "8077": " Prince",
    "8078": "Jamie",
    "8079": " goats",
    "8080": "what",
    "8081": " target",
    "8082": "rest",
    "8083": " Wait",
    "8084": " Karen",
    "8085": " dears",
    "8086": " Bang",
    "8087": "artled",
    "8088": "Red",
    "8089": " waddled",
    "8090": " munch",
    "8091": " flips",
    "8092": " Cro",
    "8093": " lowered",
    "8094": " stepping",
    "8095": " cons",
    "8096": " Jackie",
    "8097": " teachers",
    "8098": " cowboy",
    "8099": " Toys",
    "8100": " inches",
    "8101": " envelopes",
    "8102": "ears",
    "8103": " char",
    "8104": " Vroom",
    "8105": "oosh",
    "8106": " explorer",
    "8107": " anticip",
    "8108": " playd",
    "8109": " Ready",
    "8110": " Ruff",
    "8111": " Ralph",
    "8112": "unity",
    "8113": "Nice",
    "8114": "Finn",
    "8115": " Bad",
    "8116": "ening",
    "8117": " knocking",
    "8118": " floors",
    "8119": " efforts",
    "8120": " Pl",
    "8121": " uniforms",
    "8122": "lied",
    "8123": " Tri",
    "8124": " aware",
    "8125": " footprints",
    "8126": "Someone",
    "8127": " nearly",
    "8128": " Fiona",
    "8129": "llas",
    "8130": " disc",
    "8131": " Ria",
    "8132": "ivi",
    "8133": " whimp",
    "8134": " trot",
    "8135": " sens",
    "8136": " glitt",
    "8137": " appreciation",
    "8138": " necks",
    "8139": " collap",
    "8140": " checks",
    "8141": " lapt",
    "8142": " except",
    "8143": "ici",
    "8144": " plug",
    "8145": " charge",
    "8146": " Jacky",
    "8147": " fluttering",
    "8148": " umbrellas",
    "8149": " stamped",
    "8150": "acy",
    "8151": " sandcastles",
    "8152": " Davey",
    "8153": " statues",
    "8154": " Honey",
    "8155": "omb",
    "8156": "iscuit",
    "8157": "ails",
    "8158": "Hoppy",
    "8159": " shrank",
    "8160": " Amelia",
    "8161": "rily",
    "8162": " prick",
    "8163": " finishing",
    "8164": " adds",
    "8165": "rons",
    "8166": " stroll",
    "8167": " hunters",
    "8168": " dodged",
    "8169": " chocolates",
    "8170": " passengers",
    "8171": " germs",
    "8172": "oger",
    "8173": " wrigg",
    "8174": " aprons",
    "8175": " aisle",
    "8176": " sets",
    "8177": " Gerry",
    "8178": " weeds",
    "8179": " novels",
    "8180": "order",
    "8181": " demanding",
    "8182": " Taking",
    "8183": " scratching",
    "8184": " meows",
    "8185": "issa",
    "8186": "Dr",
    "8187": " nurses",
    "8188": "Lucky",
    "8189": ".'\"",
    "8190": " minding",
    "8191": " discussing",
    "8192": "urrender",
    "8193": " killed",
    "8194": " driveway",
    "8195": " Cari",
    "8196": " becomes",
    "8197": " toolbox",
    "8198": " laptop",
    "8199": " haird",
    "8200": " Eliz",
    "8201": " posit",
    "8202": " attack",
    "8203": " Sadie",
    "8204": " Despite",
    "8205": "Speedy",
    "8206": " Gl",
    "8207": "sol",
    "8208": " scampered",
    "8209": " bounces",
    "8210": " supplied",
    "8211": " sprays",
    "8212": " deed",
    "8213": " tempt",
    "8214": " suggestion",
    "8215": " friendships",
    "8216": " burns",
    "8217": "Coco",
    "8218": " slapping",
    "8219": " closing",
    "8220": " invites",
    "8221": " belongings",
    "8222": " anticipation",
    "8223": " springin",
    "8224": " form",
    "8225": " erase",
    "8226": " cotton",
    "8227": " Stan",
    "8228": " twists",
    "8229": " rays",
    "8230": " snuggle",
    "8231": " forgives",
    "8232": " models",
    "8233": " shall",
    "8234": " massages",
    "8235": " humming",
    "8236": "onnie",
    "8237": " responded",
    "8238": " newfound",
    "8239": " ghosts",
    "8240": " expecting",
    "8241": " Shelly",
    "8242": " cheated",
    "8243": "Does",
    "8244": " Wooly",
    "8245": "Gigi",
    "8246": "otte",
    "8247": " traveling",
    "8248": " Ne",
    "8249": " cond",
    "8250": " battle",
    "8251": " although",
    "8252": "alloween",
    "8253": " mommies",
    "8254": " invitations",
    "8255": " carries",
    "8256": " aim",
    "8257": " refreshing",
    "8258": " presented",
    "8259": " conc",
    "8260": "hel",
    "8261": " twenty",
    "8262": " rowed",
    "8263": " Bumpy",
    "8264": "ots",
    "8265": " squir",
    "8266": "rie",
    "8267": "arlotte",
    "8268": " foxes",
    "8269": " cooper",
    "8270": " final",
    "8271": " duckling",
    "8272": " cafe",
    "8273": " Bibi",
    "8274": "Pip",
    "8275": " marshmallows",
    "8276": " clicked",
    "8277": " Zipper",
    "8278": "oor",
    "8279": " jets",
    "8280": " designing",
    "8281": " beaver",
    "8282": "five",
    "8283": " Muffin",
    "8284": " Halloween",
    "8285": " mugs",
    "8286": " Whoever",
    "8287": " drown",
    "8288": " Although",
    "8289": " tricycle",
    "8290": " picnics",
    "8291": " oppos",
    "8292": " convin",
    "8293": " Ruth",
    "8294": " Excited",
    "8295": "iens",
    "8296": " Cle",
    "8297": "po",
    "8298": " scoops",
    "8299": " congratul",
    "8300": " Pop",
    "8301": " Maddie",
    "8302": "Sadly",
    "8303": " \u2014",
    "8304": " travels",
    "8305": " aliens",
    "8306": " tests",
    "8307": " questioned",
    "8308": " Speed",
    "8309": "inted",
    "8310": " strips",
    "8311": " craft",
    "8312": "Near",
    "8313": "atty",
    "8314": "Mouse",
    "8315": "covered",
    "8316": " defe",
    "8317": " Flutter",
    "8318": " Bubba",
    "8319": "iri",
    "8320": "Br",
    "8321": " fights",
    "8322": "roken",
    "8323": "Ball",
    "8324": " opposite",
    "8325": " Biggy",
    "8326": "Hmm",
    "8327": "Find",
    "8328": "Elly",
    "8329": "Chloe",
    "8330": " Im",
    "8331": " rout",
    "8332": " grandfather",
    "8333": " encountered",
    "8334": " afford",
    "8335": " Never",
    "8336": " decl",
    "8337": "inch",
    "8338": " raising",
    "8339": "iment",
    "8340": " upside",
    "8341": " Vivi",
    "8342": "Meanwhile",
    "8343": "Jess",
    "8344": " flashed",
    "8345": " calmly",
    "8346": " Rita",
    "8347": " yawning",
    "8348": " sincere",
    "8349": " realizes",
    "8350": "aturday",
    "8351": "Trust",
    "8352": "Choo",
    "8353": " crystals",
    "8354": " buddy",
    "8355": " Samantha",
    "8356": " cupcakes",
    "8357": " buckled",
    "8358": "byes",
    "8359": "Both",
    "8360": " winners",
    "8361": " defin",
    "8362": "verse",
    "8363": "ris",
    "8364": "',",
    "8365": " weapons",
    "8366": " caw",
    "8367": "shadow",
    "8368": "Josh",
    "8369": " packages",
    "8370": " cheat",
    "8371": " Saturday",
    "8372": " sacks",
    "8373": " messes",
    "8374": " goodbyes",
    "8375": " coach",
    "8376": " attem",
    "8377": "quet",
    "8378": " convers",
    "8379": " Truck",
    "8380": " Flo",
    "8381": "val",
    "8382": " drift",
    "8383": " caps",
    "8384": " Mina",
    "8385": " Eva",
    "8386": "emies",
    "8387": " enemies",
    "8388": "asha",
    "8389": " yummiest",
    "8390": " scrub",
    "8391": " swallow",
    "8392": " returning",
    "8393": "rian",
    "8394": " admiration",
    "8395": " Softy",
    "8396": " Megan",
    "8397": "Since",
    "8398": " sprout",
    "8399": " Louise",
    "8400": " unable",
    "8401": " Playing",
    "8402": " Another",
    "8403": "ooks",
    "8404": "ugging",
    "8405": " sadder",
    "8406": " freezing",
    "8407": " brightest",
    "8408": " bless",
    "8409": " Yawn",
    "8410": " respon",
    "8411": " Man",
    "8412": "reverse",
    "8413": " response",
    "8414": " cosy",
    "8415": " Oh",
    "8416": " diamonds",
    "8417": " bride",
    "8418": "stalk",
    "8419": " reapp",
    "8420": " opport",
    "8421": " honking",
    "8422": " garbage",
    "8423": " whispering",
    "8424": " stretches",
    "8425": " prevented",
    "8426": "erk",
    "8427": "antastic",
    "8428": " whoever",
    "8429": " odd",
    "8430": " awful",
    "8431": " Gray",
    "8432": "alth",
    "8433": " weighs",
    "8434": " journeys",
    "8435": " awoke",
    "8436": " traps",
    "8437": " spices",
    "8438": " dragonfly",
    "8439": "off",
    "8440": " born",
    "8441": " reassured",
    "8442": " clip",
    "8443": "ivia",
    "8444": " stall",
    "8445": " beanstalk",
    "8446": " argum",
    "8447": " examini",
    "8448": " definitely",
    "8449": " beetles",
    "8450": " automobiles",
    "8451": " Maisy",
    "8452": "mine",
    "8453": "Hop",
    "8454": " visitors",
    "8455": " stuffing",
    "8456": " playdate",
    "8457": " washes",
    "8458": "cie",
    "8459": "broken",
    "8460": " wiser",
    "8461": " customer",
    "8462": "uper",
    "8463": "emma",
    "8464": "Rachel",
    "8465": " travelling",
    "8466": " Sofia",
    "8467": " Jolly",
    "8468": " Flop",
    "8469": "ouquet",
    "8470": " hairdress",
    "8471": " bouquet",
    "8472": " Nurse",
    "8473": "orse",
    "8474": "bble",
    "8475": ",'",
    "8476": " tumbled",
    "8477": " decoration",
    "8478": " campfire",
    "8479": " Elle",
    "8480": " honesty",
    "8481": " bud",
    "8482": "vy",
    "8483": "ebecca",
    "8484": "Only",
    "8485": " bomb",
    "8486": " welcoming",
    "8487": " offering",
    "8488": " wealth",
    "8489": " troubles",
    "8490": " occas",
    "8491": " increasing",
    "8492": " Ot",
    "8493": " Jax",
    "8494": " Hello",
    "8495": " loudest",
    "8496": " inspired",
    "8497": " type",
    "8498": " parted",
    "8499": " groan",
    "8500": " Chick",
    "8501": " Nutty",
    "8502": "irac",
    "8503": " whales",
    "8504": " Thunder",
    "8505": " Ricky",
    "8506": "yl",
    "8507": " declared",
    "8508": " correctly",
    "8509": "yler",
    "8510": "ooky",
    "8511": "fus",
    "8512": " beaks",
    "8513": " Quacky",
    "8514": "athan",
    "8515": " cleared",
    "8516": " cowboys",
    "8517": " nuzzled",
    "8518": " Dotty",
    "8519": " prizes",
    "8520": " exch",
    "8521": "Finny",
    "8522": " warmly",
    "8523": " Missile",
    "8524": " rewards",
    "8525": " obeyed",
    "8526": " customers",
    "8527": "Should",
    "8528": " sirens",
    "8529": " comforting",
    "8530": " Fel",
    "8531": "shaped",
    "8532": " connect",
    "8533": " Flappy",
    "8534": "match",
    "8535": " towns",
    "8536": " Magic",
    "8537": " Bingo",
    "8538": "elieve",
    "8539": " rely",
    "8540": " Vicky",
    "8541": "Honey",
    "8542": " trigger",
    "8543": " owns",
    "8544": " insisting",
    "8545": " fantastic",
    "8546": " bends",
    "8547": " Fe",
    "8548": " spoiling",
    "8549": " hairdresser",
    "8550": " surrendered",
    "8551": " supporting",
    "8552": " shares",
    "8553": " poses",
    "8554": " pipes",
    "8555": " cleans",
    "8556": "rench",
    "8557": "Sun",
    "8558": "Outside",
    "8559": "Julie",
    "8560": " wrinkled",
    "8561": " Cook",
    "8562": " chopped",
    "8563": " recorder",
    "8564": " moons",
    "8565": " beaming",
    "8566": "unes",
    "8567": "ellow",
    "8568": "Beth",
    "8569": " thanking",
    "8570": " snowy",
    "8571": " Wolf",
    "8572": " scurry",
    "8573": " experien",
    "8574": " enjoyable",
    "8575": " active",
    "8576": " coral",
    "8577": " Piggy",
    "8578": " environ",
    "8579": " dollar",
    "8580": " Kevin",
    "8581": "worm",
    "8582": "elope",
    "8583": " loc",
    "8584": "Je",
    "8585": " streamers",
    "8586": " Bub",
    "8587": "udged",
    "8588": " Patty",
    "8589": " Mother",
    "8590": " Zack",
    "8591": "inger",
    "8592": "Suzy",
    "8593": " examp",
    "8594": " shorts",
    "8595": " shooed",
    "8596": " environment",
    "8597": "Tree",
    "8598": " ill",
    "8599": " scent",
    "8600": " bruises",
    "8601": "uster",
    "8602": " grat",
    "8603": " Luc",
    "8604": "Bo",
    "8605": " hisses",
    "8606": " steering",
    "8607": " self",
    "8608": " plugged",
    "8609": " Elsa",
    "8610": " warrior",
    "8611": " visits",
    "8612": " exercises",
    "8613": "screen",
    "8614": "irl",
    "8615": "aptain",
    "8616": " dangers",
    "8617": " cuddles",
    "8618": " Rel",
    "8619": " Ar",
    "8620": " unfortunately",
    "8621": " squished",
    "8622": " signing",
    "8623": " Light",
    "8624": "bee",
    "8625": "Ray",
    "8626": " pilots",
    "8627": " disappoint",
    "8628": "munk",
    "8629": " gratitude",
    "8630": " applauding",
    "8631": " providing",
    "8632": " Moppy",
    "8633": "alf",
    "8634": " tickles",
    "8635": " ting",
    "8636": " Rub",
    "8637": "Grow",
    "8638": " storms",
    "8639": " nights",
    "8640": " jud",
    "8641": " convinced",
    "8642": " badger",
    "8643": " Elsie",
    "8644": " youn",
    "8645": " responsib",
    "8646": " choosing",
    "8647": " Kelly",
    "8648": "Joy",
    "8649": " youngest",
    "8650": " nearest",
    "8651": " brains",
    "8652": " activity",
    "8653": "Abby",
    "8654": " exploded",
    "8655": " coughed",
    "8656": " arranged",
    "8657": "Claire",
    "8658": " rewarding",
    "8659": " Tre",
    "8660": " Fly",
    "8661": "pr",
    "8662": "good",
    "8663": "erpiece",
    "8664": " sunscreen",
    "8665": " peep",
    "8666": " bond",
    "8667": " Floppy",
    "8668": "asers",
    "8669": "Mon",
    "8670": " Tweety",
    "8671": " Sweet",
    "8672": " Katy",
    "8673": " Joan",
    "8674": " Sal",
    "8675": "ilities",
    "8676": " annoying",
    "8677": " soapy",
    "8678": "sn",
    "8679": "meow",
    "8680": "Splash",
    "8681": " rails",
    "8682": " laces",
    "8683": " threads",
    "8684": " tapping",
    "8685": " offic",
    "8686": " appreciated",
    "8687": " Pine",
    "8688": " Phil",
    "8689": "boards",
    "8690": " weighing",
    "8691": " heartbroken",
    "8692": " emerged",
    "8693": " congratulated",
    "8694": " Pick",
    "8695": "Danger",
    "8696": " tin",
    "8697": " Sil",
    "8698": " crocodiles",
    "8699": " clerk",
    "8700": " scram",
    "8701": " attempt",
    "8702": " Nancy",
    "8703": "water",
    "8704": "Ahoy",
    "8705": " snug",
    "8706": " messed",
    "8707": " example",
    "8708": " dial",
    "8709": " Min",
    "8710": " Kay",
    "8711": " Any",
    "8712": "Momma",
    "8713": " hooks",
    "8714": " Jonny",
    "8715": " tops",
    "8716": " chipmunk",
    "8717": " soot",
    "8718": " guarding",
    "8719": " bathed",
    "8720": " manager",
    "8721": " Tippy",
    "8722": "ortunately",
    "8723": " Microscope",
    "8724": "Friends",
    "8725": " De",
    "8726": "etah",
    "8727": "Snowy",
    "8728": " masterpiece",
    "8729": " Baa",
    "8730": " erasers",
    "8731": " tips",
    "8732": " finishes",
    "8733": " fet",
    "8734": " common",
    "8735": " Tomorrow",
    "8736": "mbers",
    "8737": " trotted",
    "8738": " nibbled",
    "8739": " members",
    "8740": " digs",
    "8741": "People",
    "8742": " kinder",
    "8743": " cheetah",
    "8744": " particularly",
    "8745": " chews",
    "8746": " blond",
    "8747": "ircle",
    "8748": " rips",
    "8749": " beast",
    "8750": "Lizzy",
    "8751": " argument",
    "8752": "ative",
    "8753": " faith",
    "8754": " Helping",
    "8755": " earned",
    "8756": "Anne",
    "8757": " observing",
    "8758": " forgiveness",
    "8759": " Joke",
    "8760": " Cici",
    "8761": "chievous",
    "8762": " instantly",
    "8763": " fishes",
    "8764": " experienced",
    "8765": " curl",
    "8766": " cheaper",
    "8767": " Jumpy",
    "8768": "Rosie",
    "8769": " mischievous",
    "8770": " generosity",
    "8771": " cages",
    "8772": " Twist",
    "8773": "Gr",
    "8774": "Baa",
    "8775": " meowing",
    "8776": " foam",
    "8777": "mered",
    "8778": "Cindy",
    "8779": " stores",
    "8780": " grandd",
    "8781": " Ag",
    "8782": "etchup",
    "8783": " mattered",
    "8784": " teles",
    "8785": " passes",
    "8786": " limp",
    "8787": "Sque",
    "8788": " sleeps",
    "8789": "iolet",
    "8790": " breaths",
    "8791": "ordinary",
    "8792": "ettle",
    "8793": "ending",
    "8794": " trans",
    "8795": " rin",
    "8796": " gasps",
    "8797": " Freddie",
    "8798": "Got",
    "8799": " rumbling",
    "8800": " hatch",
    "8801": " Momma",
    "8802": "over",
    "8803": "abra",
    "8804": " grassho",
    "8805": " accomplished",
    "8806": " Hopper",
    "8807": "acing",
    "8808": " thump",
    "8809": " telescope",
    "8810": " strum",
    "8811": " smartest",
    "8812": " mats",
    "8813": " whined",
    "8814": " moat",
    "8815": "Gina",
    "8816": " scrambled",
    "8817": " jugg",
    "8818": " farmers",
    "8819": " Ice",
    "8820": " drip",
    "8821": "Robbie",
    "8822": " syrup",
    "8823": " gardens",
    "8824": " collapsed",
    "8825": " angrily",
    "8826": " More",
    "8827": "ouraged",
    "8828": "idey",
    "8829": " vegg",
    "8830": " styles",
    "8831": " forests",
    "8832": " experiences",
    "8833": " discoveries",
    "8834": "hole",
    "8835": " tor",
    "8836": " medals",
    "8837": " types",
    "8838": " otters",
    "8839": " meaning",
    "8840": " faint",
    "8841": " conqu",
    "8842": " Does",
    "8843": "pit",
    "8844": "adabra",
    "8845": "acock",
    "8846": " snapping",
    "8847": " hardest",
    "8848": " fif",
    "8849": "ering",
    "8850": " movements",
    "8851": " expression",
    "8852": " surv",
    "8853": " chilly",
    "8854": " bubbly",
    "8855": " affect",
    "8856": "Pinky",
    "8857": " vests",
    "8858": " unfair",
    "8859": " court",
    "8860": "Whenever",
    "8861": " toothbrush",
    "8862": " scores",
    "8863": " extraordinary",
    "8864": "Never",
    "8865": " attitude",
    "8866": " vibr",
    "8867": " horri",
    "8868": " bluebird",
    "8869": " Monkey",
    "8870": "mel",
    "8871": "lls",
    "8872": "Mo",
    "8873": " spears",
    "8874": " ketchup",
    "8875": " Berry",
    "8876": "Mother",
    "8877": " sooner",
    "8878": " grasshopper",
    "8879": " behaviour",
    "8880": " patches",
    "8881": " habit",
    "8882": "yd",
    "8883": "erts",
    "8884": "Karen",
    "8885": " pokes",
    "8886": " momma",
    "8887": " afar",
    "8888": " Ashley",
    "8889": "lo",
    "8890": "ieves",
    "8891": "Jacob",
    "8892": " thicker",
    "8893": " scri",
    "8894": " Friend",
    "8895": "Jon",
    "8896": " squeezes",
    "8897": " slithered",
    "8898": " shrunk",
    "8899": " classmates",
    "8900": " Terry",
    "8901": " Fle",
    "8902": " icky",
    "8903": " prickly",
    "8904": " glittering",
    "8905": " expert",
    "8906": " topp",
    "8907": " kneeling",
    "8908": " announced",
    "8909": " Super",
    "8910": " Riri",
    "8911": "elling",
    "8912": " peacock",
    "8913": " marking",
    "8914": "ctric",
    "8915": " costs",
    "8916": " Cally",
    "8917": " Achoo",
    "8918": " zigzags",
    "8919": " watermel",
    "8920": " thieves",
    "8921": " skirts",
    "8922": " jumper",
    "8923": " hood",
    "8924": " acts",
    "8925": " Zog",
    "8926": " App",
    "8927": " wolves",
    "8928": " Swim",
    "8929": " Cloud",
    "8930": "Papa",
    "8931": " thumbs",
    "8932": " squeaky",
    "8933": " concer",
    "8934": " cocoon",
    "8935": " woodcut",
    "8936": " boards",
    "8937": " Eliza",
    "8938": " Becky",
    "8939": " servant",
    "8940": "idence",
    "8941": "affle",
    "8942": " cheating",
    "8943": " Jason",
    "8944": "bu",
    "8945": " trading",
    "8946": " raking",
    "8947": "cat",
    "8948": "Jessie",
    "8949": " explaini",
    "8950": " Eric",
    "8951": "rick",
    "8952": " tidied",
    "8953": " biscuit",
    "8954": " lunchtime",
    "8955": " luckily",
    "8956": " Ac",
    "8957": "anced",
    "8958": "Frog",
    "8959": " Puffy",
    "8960": " spilling",
    "8961": " Day",
    "8962": "Fire",
    "8963": " transform",
    "8964": " desserts",
    "8965": " Use",
    "8966": " Maddy",
    "8967": " Daniel",
    "8968": " Animal",
    "8969": "\u2026",
    "8970": "ror",
    "8971": " Pig",
    "8972": " Mine",
    "8973": " Still",
    "8974": " Gill",
    "8975": "rough",
    "8976": "amma",
    "8977": " messages",
    "8978": " mirac",
    "8979": " Captain",
    "8980": "idy",
    "8981": " windowsill",
    "8982": " chill",
    "8983": " beating",
    "8984": " Tammy",
    "8985": " Lung",
    "8986": " Gilly",
    "8987": " seeking",
    "8988": "oot",
    "8989": " actor",
    "8990": " Rainbow",
    "8991": " Lina",
    "8992": " William",
    "8993": "sess",
    "8994": "its",
    "8995": " Math",
    "8996": "pril",
    "8997": "Any",
    "8998": " foreshadow",
    "8999": "war",
    "9000": "acles",
    "9001": "Bluey",
    "9002": " leans",
    "9003": " Step",
    "9004": " Pinch",
    "9005": " Hi",
    "9006": "racadabra",
    "9007": "Freeze",
    "9008": "Bounce",
    "9009": " watermelon",
    "9010": " hissing",
    "9011": " flashing",
    "9012": " dev",
    "9013": " cloths",
    "9014": " Tiger",
    "9015": " Monster",
    "9016": " Frankie",
    "9017": " winding",
    "9018": " positive",
    "9019": " funn",
    "9020": " discouraged",
    "9021": " Wil",
    "9022": "pop",
    "9023": " woodcutter",
    "9024": " forts",
    "9025": " dripped",
    "9026": " compete",
    "9027": " teapot",
    "9028": " pressing",
    "9029": " disagreeing",
    "9030": "icking",
    "9031": " glimmering",
    "9032": " veggies",
    "9033": " trusts",
    "9034": " tidying",
    "9035": " kangaroos",
    "9036": " Peep",
    "9037": " tempted",
    "9038": " landing",
    "9039": " Flora",
    "9040": " dock",
    "9041": " shallow",
    "9042": " overw",
    "9043": " formed",
    "9044": "lers",
    "9045": " rack",
    "9046": " fade",
    "9047": " Tooth",
    "9048": "flowers",
    "9049": " worst",
    "9050": " electric",
    "9051": " cops",
    "9052": "eling",
    "9053": "Nothing",
    "9054": " apology",
    "9055": "iving",
    "9056": "creams",
    "9057": "ai",
    "9058": " sleds",
    "9059": " Silver",
    "9060": " Life",
    "9061": "upid",
    "9062": " comets",
    "9063": " ass",
    "9064": "Owl",
    "9065": " sav",
    "9066": " Shark",
    "9067": " Mag",
    "9068": " Jelly",
    "9069": "Bug",
    "9070": " situations",
    "9071": " papa",
    "9072": " officers",
    "9073": " conversation",
    "9074": " 4",
    "9075": "Rain",
    "9076": " Roger",
    "9077": " Charlotte",
    "9078": "storm",
    "9079": "aye",
    "9080": " suns",
    "9081": " ding",
    "9082": "\u201d,",
    "9083": " zips",
    "9084": " structures",
    "9085": " scurrying",
    "9086": " pizzas",
    "9087": " overwhel",
    "9088": " miller",
    "9089": " Butter",
    "9090": " granddaughter",
    "9091": " foggy",
    "9092": " Olivia",
    "9093": " Hurry",
    "9094": " Amber",
    "9095": "Zoe",
    "9096": " Janey",
    "9097": " webs",
    "9098": " deserved",
    "9099": "Rabbit",
    "9100": " opportunity",
    "9101": " cubs",
    "9102": " Yummy",
    "9103": " Spidey",
    "9104": " Sasha",
    "9105": " Mixie",
    "9106": " Buster",
    "9107": " snorted",
    "9108": " rhino",
    "9109": " differences",
    "9110": " Gold",
    "9111": " quacking",
    "9112": " Tell",
    "9113": "ifully",
    "9114": "ended",
    "9115": "Fifi",
    "9116": " heaven",
    "9117": " Birds",
    "9118": " unlo",
    "9119": " levers",
    "9120": " inchworm",
    "9121": " inter",
    "9122": " approach",
    "9123": " Tyler",
    "9124": "ssess",
    "9125": " seagulls",
    "9126": " possess",
    "9127": " cooperate",
    "9128": " Rufus",
    "9129": " Felix",
    "9130": " Boom",
    "9131": "welcome",
    "9132": "sers",
    "9133": "ragon",
    "9134": "of",
    "9135": "?\u201d.",
    "9136": "andra",
    "9137": " pose",
    "9138": " disappointment",
    "9139": " Smoke",
    "9140": "ocular",
    "9141": " speaks",
    "9142": " sneaks",
    "9143": "snap",
    "9144": " binocular",
    "9145": " artwork",
    "9146": " surfed",
    "9147": " scowl",
    "9148": " answering",
    "9149": " Snake",
    "9150": " shortcut",
    "9151": " Grand",
    "9152": " sipped",
    "9153": " robin",
    "9154": " dep",
    "9155": "Climb",
    "9156": " arrest",
    "9157": " Inky",
    "9158": "ssy",
    "9159": " unwrapped",
    "9160": " ribbit",
    "9161": " reun",
    "9162": " amused",
    "9163": " Amanda",
    "9164": "ugar",
    "9165": " repeats",
    "9166": " pepperoni",
    "9167": " applause",
    "9168": " keyhole",
    "9169": " checkout",
    "9170": " Mae",
    "9171": " Cars",
    "9172": "Lia",
    "9173": "Deal",
    "9174": " visitor",
    "9175": " striking",
    "9176": " puppets",
    "9177": " paddling",
    "9178": "Eat",
    "9179": " unz",
    "9180": " croaked",
    "9181": " attacked",
    "9182": " Circle",
    "9183": " Brian",
    "9184": "orsie",
    "9185": " spooky",
    "9186": " Otto",
    "9187": " Gus",
    "9188": "Each",
    "9189": " groaned",
    "9190": " beautifully",
    "9191": " Jean",
    "9192": "ili",
    "9193": "gar",
    "9194": "cidents",
    "9195": " swimsuits",
    "9196": " consider",
    "9197": " checking",
    "9198": "uses",
    "9199": " Yellow",
    "9200": "jest",
    "9201": " waters",
    "9202": " groom",
    "9203": " Squeak",
    "9204": " Slinky",
    "9205": "yle",
    "9206": " invent",
    "9207": "Luke",
    "9208": " nets",
    "9209": " exams",
    "9210": "otion",
    "9211": "ets",
[...]
